[PAD]
[UNK]
[CLS]
[SEP]
[MASK]
!
"
#
$
%
&
'
(
)
*
+
,
-
.
/
0
1
2
3
4
5
6
7
8
9
:
;
<
=
>
?
@
[
\
]
^
_
`
a
b
c
d
e
f
g
h
i
j
k
l
m
n
o
p
q
r
s
t
u
v
w
x
y
z
{
|
}
~
¡
¢
£
¤
¥
¦
§
¨
©
ª
«
¬
®
¯
°
±
²
³
´
µ
¶
·
¸
¹
º
»
¼
½
¾
¿
×
ß
à
á
â
ã
ä
å
æ
ç
è
é
ê
ë
ì
í
î
ï
ð
ñ
ò
ó
ô
õ
ö
÷
ø
ù
ú
û
ü
ý
þ
ÿ
ā
ă
ą
ć
č
đ
ē
ė
ę
ě
ĝ
ğ
ġ
ģ
ī
ı
ķ
ł
ń
ň
ŋ
ō
ő
œ
ř
ś
ş
š
ţ
ū
ů
ű
ź
ż
ž
ƒ
ơ
ư
ǧ
ș
ț
ɑ
ə
ɩ
ɪ
ɾ
ʹ
ʼ
ʿ
ˆ
ˈ
˚
˜
ˮ
́
̂
̆
̇
̈
̌
̧
ͼ
ά
έ
ή
ί
α
β
γ
δ
ε
ζ
η
θ
ι
κ
λ
μ
ν
ξ
ο
π
ρ
ς
σ
τ
υ
φ
χ
ψ
ω
ό
ύ
ώ
а
б
в
г
д
е
ж
з
и
й
к
л
м
н
о
п
р
с
т
у
ф
х
ц
ч
ш
щ
ъ
ы
ь
э
ю
я
ё
є
ѕ
і
ї
ј
қ
ҫ
һ
ә
ԁ
ա
գ
դ
ե
ի
լ
կ
հ
մ
յ
ն
ո
ս
վ
տ
ր
ւ
א
ב
ג
ד
ה
ו
ז
ח
ט
י
כ
ל
ם
מ
ן
נ
ס
ע
פ
צ
ק
ר
ש
ת
،
ء
آ
أ
ؤ
إ
ئ
ا
ب
ة
ت
ث
ج
ح
خ
د
ذ
ر
ز
س
ش
ص
ض
ط
ظ
ع
غ
ـ
ف
ق
ك
ل
م
ن
ه
و
ى
ي
ً
ٌ
ٍ
َ
ُ
ِ
ّ
ْ
٫
ٰ
ٱ
پ
چ
ک
گ
ی
۪
ं
क
त
द
न
प
म
य
र
ल
व
स
ह
ा
ि
ी
े
ो
्
।
ক
জ
ত
দ
ন
প
ব
ম
য
র
ল
স
হ
া
ি
ু
ে
্
য়
க
த
ி
ு
்
్
ಿ
್
ക
ന
ി
്
ก
ข
ค
ง
จ
ช
ด
ต
ท
น
บ
ป
พ
ม
ย
ร
ล
ว
ส
ห
อ
ะ
ั
า
ิ
ี
ื
ุ
ู
เ
แ
โ
ไ
่
้
์
ა
ე
ი
ლ
მ
ნ
ო
რ
ს
ᴏ
ḥ
ḳ
ṣ
ạ
ả
ấ
ế
ệ
ố
ộ
ớ
‐
‑
‒
–
—
―
‘
’
‚
“
”
„
‟
‡
•
․
…
′
″
‹
›
€
₺
℃
№
™
←
↑
→
↓
−
∙
√
≤
≥
⋆
─
█
■
▪
▫
▬
▶
▸
►
▻
▼
●
★
☆
☎
☝
☺
♀
♡
♥
♦
♪
♫
✅
✌
✓
✔
✨
❑
❗
❣
❤
❥
➖
➡
➤
⠀
⭐
、
。
「
」
【
】
〰
あ
い
う
お
か
が
き
く
こ
さ
し
す
そ
た
ち
っ
て
で
と
な
に
の
は
ま
み
も
ら
り
る
れ
を
ん
ア
ィ
イ
ウ
ェ
エ
オ
カ
ガ
キ
ク
グ
コ
サ
シ
ジ
ス
ズ
タ
ダ
チ
ッ
テ
デ
ト
ド
ナ
ニ
バ
パ
ビ
フ
ブ
プ
マ
ミ
ム
メ
ャ
ュ
ョ
ラ
リ
ル
レ
ロ
ン
・
ー
ㅋ
一
万
三
上
下
不
世
业
东
个
中
为
主
么
之
乐
九
买
了
争
事
二
五
交
产
京
人
什
今
代
以
件
会
体
作
信
免
全
公
六
内
円
准
出
分
划
利
到
前
加
动
势
北
区
十
单
南
县
友
双
发
可
台
号
司
合
同
名
吗
和
品
哪
器
四
国
图
在
地
场
址
坛
城
多
大
天
奖
女
好
如
姐
娱
子
学
安
完
官
定
宝
客
家
小
少
山
川
州
工
巧
市
平
年
广
库
度
开
式
录
彩
影
律
微
心
快
怎
性
情
成
我
房
手
打
技
投
报
排
推
提
搐
播
数
文
料
新
方
日
时
是
最
月
有
期
本
机
来
枚
果
样
榜
正
民
水
江
法
注
海
港
游
澳
爱
片
版
牌
物
特
玄
王
玩
现
球
理
生
用
田
电
界
癟
白
百
的
直
眉
看
県
真
码
神
票
福
站
第
算
精
系
繹
红
线
经
结
网
美
群
羹
老
肖
能
自
色
花
莽
蓷
蓾
蔒
蔞
行
表
西
視
覺
规
视
解
计
记
论
说
请
谋
财
费
资
赛
赢
走
车
软
载
运
选
通
道
部
里
重
金
钱
门
集
霸
页
香
马
高
龙
가
고
기
는
다
로
쀀
사
서
스
시
에
을
의
이
인
지
하
한
ﬁ
ﬂ
﴾
﴿
️
！
（
）
，
：
🇷
🇹
🌟
🌷
🌸
🌹
🌺
🌼
🌿
🍀
🍁
🍂
🍃
🎀
🎁
🎈
🎉
🏻
🏼
👇
👈
👉
👌
👍
👏
💃
💎
💐
💕
💖
💗
💙
💚
💛
💜
💞
💥
💪
💫
💯
📌
📍
📞
📱
📲
🔥
🔴
🔸
🔹
😀
😁
😂
😃
😄
😅
😇
😉
😊
😋
😍
😎
😔
😘
😛
😢
🙁
🙂
🙈
🙋
🙏
🤔
🤗
🤣
##4
##9
##8
##0
##c
##a
##t
##l
##u
##n
##y
##”
##o
##s
##¸
##m
##k
##z
##i
##r
##f
##p
##b
##e
##h
##v
##ı
##2
##1
##g
##ş
##ý
##þ
##w
##d
##…
##ç
##时
##彩
##单
##双
##十
##期
##投
##方
##’
##ü
##ö
##ğ
##3
##j
##ê
##站
##5
##万
##用
##表
##式
##â
##q
##ñ
##ʹ
##é
##е
##б
##с
##а
##й
##т
##7
##6
##x
##‘
##̇
##»
##“
##″
##‟
##ä
##ÿ
##м
##н
##и
##к
##น
##ื
##่
##อ
##ง
##จ
##า
##ก
##ม
##ี
##เ
##ว
##บ
##ไ
##ต
##์
##ห
##ค
##ู
##ล
##ุ
##ร
##ท
##ิ
##ั
##ย
##ข
##æ
##´
##–
##х
##ф
##р
##个
##网
##玩
##最
##多
##®
##ð
##¿
##ã
##³
##±
##о
##л
##у
##ч
##г
##û
##算
##经
##注
##ï
##з
##д
##ж
##ы
##ģ
##开
##奖
##号
##码
##ò
##ל
##א
##ó
##ë
##ِ
##د
##ْ
##ن
##َ
##ا
##ه
##ُ
##م
##ो
##½
##ر
##ق
##ي
##ة
##ج
##로
##에
##¶
##أ
##ف
##ض
##á
##ú
##ɑ
##国
##金
##一
##二
##资
##料
##ل
##ّ
##业
##î
##å
##̂
##đ
##—
##年
##月
##前
##í
##в
##̈
##̧
##̆
##是
##以
##民
##主
##集
##中
##为
##来
##的
##有
##性
##和
##律
##。
##部
##记
##第
##、
##，
##平
##心
##全
##地
##作
##出
##发
##本
##规
##ш
##ά
##λ
##ο
##υ
##ν
##²
##و
##ت
##،
##τ
##ί
##ζ
##α
##ς
##神
##通
##天
##报
##图
##ș
##😍
##ą
##ј
##🙋
##分
##）
##高
##度
##到
##好
##「
##」
##果
##球
##加
##！
##י
##צ
##ר
##页
##™
##特
##😀
##ì
##ū
##🍀
##õ
##️
##ś
##§
##少
##了
##º
##ி
##ு
##த
##்
##க
##北
##京
##赛
##车
##游
##°
##«
##€
##œ
##🏻
##¨
##ѕ
##っ
##こ
##う
##ら
##し
##ε
##ρ
##ύ
##π
##ξ
##γ
##σ
##↓
##„
##ю
##羹
##ɾ
##山
##は
##な
##я
##˜
##😊
##🌸
##ו
##ד
##ה
##・
##エ
##ン
##ル
##动
##重
##ь
##ā
##ī
##样
##下
##载
##正
##五
##―
##್
##ب
##′
##스
##生
##电
##影
##ك
##ى
##ß
##红
##ţ
##ส
##้
##ġ
##ئ
##س
##ー
##ト
##に
##た
##り
##覺
##ɪ
##र
##्
##ल
##フ
##ロ
##ド
##レ
##🎀
##ž
##ո
##յ
##կ
##տ
##ե
##լ
##п
##美
##ち
##♥
##ん
##い
##の
##ב
##ש
##色
##і
##ι
##ე
##მ
##ი
##ნ
##ა
##რ
##›
##¬
##μ
##手
##论
##坛
##ř
##📌
##κ
##פ
##¾
##ę
##赢
##家
##מ
##ט
##ע
##ק
##ή
##ր
##ع
##β
##ǧ
##ї
##ա
##մ
##ւ
##ն
##香
##港
##视
##直
##播
##ะ
##合
##玄
##机
##イ
##·
##¯
##ə
##成
##人
##ԁ
##ô
##η
##小
##情
##가
##고
##ø
##พ
##ป
##😂
##😄
##ё
##ƒ
##́
##إ
##ی
##ٰ
##ű
##ě
##ز
##💛
##シ
##ダ
##で
##す
##今
##日
##ア
##チ
##ェ
##ス
##ح
##☺
##¼
##ấ
##选
##代
##理
##è
##か
##ミ
##כ
##ז
##ª
##ź
##👈
##া
##ে
##।
##ė
##š
##テ
##ィ
##谋
##ս
##ի
##ء
##录
##נ
##হ
##দ
##ু
##জ
##্
##ম
##ন
##ц
##🙏
##票
##🌹
##内
##肖
##💕
##ת
##❤
##ć
##ش
##ط
##计
##划
##て
##上
##¤
##花
##大
##à
##眉
##爱
##♀
##δ
##₺
##র
##ি
##🇹
##市
##区
##哪
##行
##ッ
##タ
##さ
##四
##🇷
##이
##现
##场
##打
##×
##ा
##े
##¢
##č
##🤗
##😉
##ლ
##ს
##龙
##न
##स
##क
##新
##道
##¦
##視
##ョ
##バ
##グ
##ő
##φ
##ώ
##ク
##ム
##‚
##ů
##结
##系
##物
##自
##子
##不
##推
##同
##西
##ḥ
##文
##事
##ذ
##ả
##ˆ
##官
##🎈
##💚
##£
##👍
##ラ
##•
##÷
##ł
##ظ
##ٍ
##☆
##●
##한
##지
##다
##−
##😇
##😘
##世
##田
##真
##も
##인
##ό
##ω
##🍁
##🍂
##群
##广
##：
##能
##解
##ी
##品
##🤣
##れ
##ㅋ
##դ
##ә
##ด
##学
##会
##ـ
##🏼
##👏
##デ
##微
##信
##マ
##사
##을
##🙈
##在
##线
##☎
##վ
##工
##海
##キ
##ż
##غ
##ث
##ĝ
##آ
##خ
##ص
##ﬂ
##产
##의
##姐
##财
##库
##ウ
##コ
##ズ
##﴿
##宝
##水
##¥
##ń
##あ
##💫
##プ
##三
##怎
##么
##免
##त
##争
##霸
##快
##走
##势
##✌
##メ
##ニ
##ュ
##が
##る
##を
##く
##お
##き
##ま
##¹
##什
##乐
##ͼ
##と
##ň
##软
##件
##✔
##ʿ
##‐
##‑
##ă
##里
##э
##👉
##ᴏ
##‹
##オ
##щ
##시
##界
##川
##体
##六
##θ
##ി
##ക
##്
##χ
##پ
##ক
##ত
##ব
##য
##স
##运
##ं
##व
##如
##费
##版
##说
##ک
##リ
##可
##ह
##☝
##ō
##吗
##ŋ
##马
##😁
##利
##˚
##江
##台
##榜
##交
##九
##み
##サ
##ジ
##©
##州
##ъ
##ブ
##💖
##安
##房
##ً
##💞
##南
##द
##定
##百
##パ
##司
##提
##（
##→
##প
##ช
##έ
##👌
##💥
##‡
##¡
##є
##县
##❥
##址
##カ
##女
##▼
##ē
##之
##排
##ג
##公
##🌼
##王
##는
##ٌ
##հ
##🎉
##【
##】
##法
##片
##ﬁ
##ס
##准
##ო
##ח
##我
##գ
##ҫ
##ಿ
##ם
##娱
##城
##📞
##数
##ù
##福
##💪
##★
##ˈ
##ʼ
##白
##门
##技
##ল
##۪
##枚
##■
##ן
##💃
##老
##客
##گ
##√
##∙
##ư
##円
##そ
##▪
##看
##ؤ
##😎
##🔥
##µ
##һ
##钱
##癟
##器
##买
##❗
##巧
##💙
##🍃
##ạ
##म
##ガ
##ˮ
##东
##̌
##友
##ന
##😃
##─
##完
##ャ
##ナ
##ț
##💜
##ビ
##โ
##♡
##▶
##请
##แ
##😔
##✅
##牌
##қ
##하
##►
##प
##🌟
##ệ
##⠀
##🤔
##🙂
##ṣ
##్
##기
##ψ
##😋
##🔴
##ớ
##ḳ
##ɩ
##県
##📲
##ि
##名
##精
##➤
##👇
##繹
##य
##😢
##℃
##莽
##🔹
##য়
##ķ
##🌿
##ٱ
##♪
##✨
##چ
##🎁
##▬
##😅
##№
##📱
##서
##➡
##💗
##‒
##≤
##💯
##▻
##💐
##💎
##ế
##♫
##❣
##⭐
##蔒
##🌺
##﴾
##🌷
##≥
##澳
##↑
##📍
##➖
##٫
##█
##🙁
##😛
##쀀
##✓
##♦
##ơ
##ố
##〰
##←
##🔸
##ộ
##▫
##蓷
##⋆
##․
##蓾
##蔞
##▸
##la
##er
##in
##an
##en
##ın
##ir
##ar
##il
##lar
##ma
##ek
##el
##ak
##le
##da
##un
##de
##or
##ler
##lı
ve
bir
##iy
##et
##im
##es
##iz
##on
##ik
##at
##ur
##ay
##ır
##lan
##as
ya
##ün
de
##al
bu
##em
##is
ol
##ür
##di
##am
##ey
##dı
da
##iş
ba
##it
ka
##um
##den
##ların
##ım
##ız
##ya
##ul
##dan
##li
gö
##st
iç
ar
##ıl
##ok
##ları
sa
##ık
yap
##ini
##ış
##du
##ında
##ol
i̇
##ine
##ta
##ec
##inde
an
baş
##bil
##ük
##yor
için
##mas
##ti
##az
##esi
##iyor
al
##mak
##üz
##leri
##üm
##dir
##ğı
##iler
##eler
##şt
kar
gör
##ev
##ca
##ını
##ra
ile
##cak
son
##me
et
##dır
##tı
##te
bil
##lık
##mek
in
##ği
##inin
gel
##uz
ger
##ce
ver
ay
ön
##iye
kon
##ha
##oğ
##ına
##lu
ta
##eç
##lik
##ut
en
il
oldu
##ön
##len
##ara
##ıs
ne
##larak
değ
ed
##bi
##unu
kur
ha
##iniz
##ez
gi
##uk
##man
##us
##alı
çok
##cı
##ması
olarak
##ro
tür
##şı
##ip
or
iş
##bilir
yer
##se
##öy
gün
##üş
bel
kad
ben
##anı
ko
ma
her
ist
##ül
##ından
20
##ka
##mış
##ed
olan
##tan
on
##lay
daha
yıl
##ki
##uş
##ası
##tir
bü
##miş
var
##lama
aç
olduğ
##op
öz
türk
kul
bul
##aki
##yon
##imiz
sür
geç
ken
yar
uy
ara
##eni
##eki
##ının
##ecek
##sa
##ba
##ci
ama
çık
ak
##tır
##eş
kullan
##ken
çalı
##isi
##ili
##ece
##ör
gibi
##zer
mü
##san
##ılı
##aman
##lerin
##öyle
tek
yaş
kal
pro
##ret
kay
yön
gerek
ek
##yla
bak
kadar
tar
##laş
yan
say
##eye
dev
##ru
##eli
##let
sağ
büy
##ih
##unda
top
gen
##lü
##os
er
ev
sor
##aya
##diğ
üzer
##daki
zaman
el
##ımız
##ap
##ers
olma
yaz
doğ
oy
ola
##met
par
##eh
##’n
##larını
##lara
##ilen
##ist
##lem
dur
düş
##va
bo
gü
hay
bulun
##dığ
##ilm
çalış
san
##gi
##iyle
sonra
bun
eğ
kat
##men
##iyet
##inden
##eri
öğ
##ah
##yi
yapı
den
##öz
hak
biz
##fa
##dım
##iç
kap
şey
##eb
tara
yeni
##ark
##om
201
büyük
siz
##öl
##cu
hal
##arı
dön
##asında
özel
##ınız
##ren
değil
##maya
##uy
taraf
##gu
do
##ab
mil
yak
sen
as
##dığı
es
sah
##ot
yüz
türkiye
##ep
uz
##imi
##deki
##larda
##ede
##der
karşı
##ten
##ans
böl
alan
belir
tak
bur
şek
##if
##lam
gerç
##i̇
mu
ise
##sun
dün
sev
##ic
mer
kend
##dür
##uşt
ok
##diği
##ıyor
##lerini
##arak
gir
başk
kiş
##ter
yol
der
ser
düz
gerçek
##bul
tem
yük
##lk
##lat
##ana
har
##cağ
at
yok
açık
söyle
ki
##re
##00
##kin
veya
##makta
hem
di
bağ
ilg
has
##lığı
##larının
##eleri
iyi
göre
ada
su
##elik
insan
19
##tr
ot
##sel
##yan
##ster
##iv
neden
ilk
##esinde
haz
ayr
yet
##ef
ço
önem
tarih
##ısı
##mesi
ad
##ram
##eceğ
##mekte
##dü
##bir
alt
##siniz
##ber
##est
##lere
##erek
seç
tüm
##yı
##larına
##iyorum
##ley
söz
ağ
iz
##una
tarafından
##maz
##üt
##uyor
durum
ort
##ştir
tan
edil
##ünü
ün
göster
olduğunu
mo
##dik
ter
fark
##si
sır
yönet
##mam
göz
##şa
##iyat
öğren
##lığ
önce
art
kaz
##ça
çek
hiz
av
değiş
olduğu
kor
ab
##dık
get
öl
##art
hiç
##dece
şekil
hizmet
##ran
i̇n
##ada
getir
##eyi
az
##larında
genel
##lah
##üs
eğit
yay
ülk
bin
kurul
##ven
##leş
mi
hat
##liği
kan
nin
bilg
##maktadır
##leştir
şu
uygu
##sı
##uştur
ayn
bas
sat
alı
##aret
##ğer
ih
dış
##ğu
##asyon
##unun
##ştır
##ileri
##cuk
##id
hayat
##mektedir
tut
##dur
kim
i̇st
güz
kö
##daş
un
##han
##up
##bilirsiniz
##tik
ilgili
etti
##eğ
##ımı
değer
##ağ
mes
faz
devam
##ad
şekilde
##ika
bay
sonu
is
hakk
##raf
zor
çocuk
duy
iki
düzen
geliş
güzel
##por
olur
##ıp
ör
diğer
önemli
##liğ
bek
##acak
te
fazla
kıs
ın
##lardan
birlik
##lerde
##siz
baz
##mes
##kez
oyun
çalışma
sahip
10
yaptı
ür
##olo
güven
##ile
##istem
başla
aynı
tes
içinde
##tür
sadece
200
konu
##lacak
merkez
##gün
em
eğitim
##lerinin
hazır
sistem
##anbul
ancak
##tar
##usu
kam
##enin
##sek
sit
##çe
##dim
##sız
tekn
düşün
##ye
##rup
yardım
kes
arasında
am
##ılan
##lendir
##ındaki
arka
diye
mal
##lerine
bölg
nas
##kü
##meye
alın
##ilik
üst
##tü
##del
ede
yat
##tör
eş
saat
##na
mah
haf
tel
gelen
kız
##ünde
ayrı
dönem
##larla
benim
##ayı
bey
büt
i̇stanbul
fa
##oloj
im
olacak
üret
##dığını
kit
##ket
yapılan
##gun
##mem
görev
böyle
etk
##ban
yapıl
##ig
birlikte
dik
doğru
sal
##likle
##gram
##ıcı
içer
##bet
dünya
git
boy
ürün
sek
kendi
gaz
kom
olmak
i̇s
tur
mak
yüksek
##şk
##eyen
nasıl
##üp
karar
mı
kı
##tiğ
so
mad
##ne
başkanı
##mıştır
orta
farklı
##iya
##ehir
##det
eden
kazan
##cel
kadın
##iyon
##dar
bah
tas
##muş
##masını
fir
nın
fak
bit
bunun
başka
ban
##larımız
önc
konuş
beled
##lanan
##eme
##lo
##iyas
##ilerin
program
##miştir
başkan
iliş
pol
res
##sin
haber
##lak
proj
##laya
mut
bır
##’da
##ivers
##dem
##rak
##’nin
kü
çev
##layan
çıkar
bölüm
##af
##iversit
##leme
##lerinde
can
dav
##ildi
kr
##abil
görün
##luk
bırak
##olu
##esine
bazı
##masına
bile
sık
film
##yal
sı
bütün
üniversit
##sal
##ri
cum
bunu
mar
üç
i̇l
gön
##üne
ku
##ğü
15
şim
##hur
devlet
##larından
##iyoruz
##malı
##mez
güç
han
##emiz
##eket
bana
bugün
din
belirt
biri
tam
##ira
kaç
met
hep
adam
##kat
##cü
##diğini
kır
i̇ş
uzun
dan
##indeki
##mal
po
kas
ik
##be
arkadaş
yas
##tal
##üyor
yür
##’de
##usunda
fiyat
bulunan
##ing
##anın
sun
müdür
hakkında
ho
12
eder
ulu
tamam
##gil
bar
##ilmesi
man
ifa
##esini
sorun
dest
hasta
##net
yayın
##isinde
##mayı
dedi
##ulu
şir
öğret
olması
##ayan
dem
ro
çün
işlem
dil
uygun
##’ın
onun
çünkü
hız
sağlık
##yle
sos
cumhur
dikkat
destek
##lük
##lerden
plan
##gan
rah
hük
iht
##lantı
abd
##dum
üzerine
##ide
##kı
yem
yüzde
küç
muh
yani
genç
##sam
görüş
üy
olduk
##bar
bakan
##van
##ebil
geçir
##lerle
tah
burada
##onom
olay
dok
oluştur
kurum
##ırım
üzere
##lıyor
##gı
hareket
teş
ayrıca
onu
##çı
ber
##las
tasar
##atı
ye
##duğu
yılında
##tık
çöz
##oğlu
şirket
##rar
mev
##kan
taşı
eğer
##unuz
diy
ren
yor
##mi
artık
ihtiya
üzerinde
##gel
##lerinden
for
##’in
##bol
##ime
##ver
sava
anla
kişi
pay
##ümüz
iste
müz
##cek
##bak
kabul
##ebilir
##manın
ulaş
küçük
anlam
##lenen
##elerin
aşa
##sta
tr
milyon
11
para
##lum
##uma
##cağı
oda
##ch
erk
##istan
##eti
bor
ch
sak
gerçekleştir
ekonom
##ıldı
ah
##ılır
öğrenc
avrup
şimdi
yaşa
eski
oluş
##ızı
ortaya
ediyor
kayn
halk
##esinin
bilgi
sonr
##ladı
ey
nok
araştır
kül
yine
sosyal
##sın
yakın
##inizi
##ali
sonuç
mas
hafta
##kara
seb
kolay
ard
beni
spor
telef
ifade
##ılması
##umuz
uygulama
##tu
##bah
hava
##ıt
hüküm
koy
##tım
##za
##işim
per
gönder
telefon
##ge
tat
his
geçen
##atan
sıra
tanı
biraz
##çi
avrupa
##lamak
günü
##eniz
bizim
##suz
etmek
##duğ
##’nın
##din
30
yen
maç
geri
çeş
##bu
dolay
18
yönetim
##abilir
##maları
hes
yaklaş
du
başar
hiçbir
##ilir
cez
sar
özellikle
si
##landır
##lerimiz
##acağ
ses
kısa
herk
madde
takım
vur
konusunda
##ort
pek
millet
kontr
kav
dir
##per
##meler
##isini
söyledi
##eceği
ardından
ankara
##urt
sanat
li
yerine
kez
rahat
##doğ
##madan
gelir
na
##for
##yorum
taş
paz
mem
kol
mey
kültür
##oğraf
diz
okul
ders
##tif
senin
##laştır
kil
##gin
araç
deniz
ala
erkek
olabilir
##ştı
##asına
gazet
st
bilin
lis
süre
birç
##pr
##siyon
##ince
kitap
##vur
##üşt
mek
fot
##oz
kontrol
##cret
siyas
##og
değerlendir
örn
##tem
yapan
##eden
allah
ziy
fır
##arası
##edef
ücret
hemen
##dın
##tin
##elim
##eg
sav
size
edilen
seçim
prof
açıklama
çağ
yaptığı
yaşam
kaynak
##isine
dak
toplum
##vi
cev
birçok
hedef
ask
herkes
yanı
kalit
çeşit
##tim
ziyaret
##ünün
dair
com
##sanız
sey
th
sektör
##ınır
##unca
serv
uç
i̇z
ner
##kinci
##umlu
rek
yarat
yağ
##ılmış
##aj
bağlı
##ıda
##sunuz
##landı
kah
tic
##mey
başvur
aş
bildir
##min
köy
vardır
2018
soru
##ici
dah
14
dr
kapsam
##su
beş
##uştu
kut
suç
şeh
teknoloj
se
söy
##ılım
16
altında
elek
vatan
25
model
##ilere
##eceğini
fakat
part
##ternet
ulus
##ve
sur
##fen
gider
dö
##uluk
uğ
sana
geliştir
13
isim
iti
##ekli
id
##kün
##sik
mis
vak
##tığ
temiz
##meden
karş
istem
teknik
değişik
zar
hav
içerisinde
men
##oğun
##asını
sınır
merkezi
##şıyor
müca
savaş
pat
##rı
ait
tale
##düğ
olsun
##cih
##tur
tekrar
seni
##iyi
grup
yapmak
müşt
kurulu
af
toplantı
gereken
çar
oyn
##cut
##oy
i̇ç
satış
##pan
tercih
yal
boz
tabi
belediye
##larıyla
olup
bilim
uzak
ann
ağır
##br
indir
mücadel
##sil
tav
##isinin
##sınız
##tiği
##üsü
müm
üniversitesi
çalışan
##ıntı
ona
##uyu
##meyi
17
geldi
##var
##şte
fotoğraf
belediy
oran
yatırım
sok
öde
i̇ngil
elektr
renk
öyle
##may
##ga
tl
##ck
sin
bulu
sez
##dak
engel
##taş
alman
anlat
inan
oku
temel
##ayet
kara
##diğiniz
##ilmiş
##undan
ac
##diğim
aşağı
şehir
os
##masının
adı
fut
gez
of
teda
ele
kork
hastan
##duk
pa
mik
ortak
değiştir
sını
etkin
ail
med
kesin
##erj
##tığı
##ekk
um
##’a
yemek
gece
birbir
sizin
sahi
zamanda
kür
fin
##aliyet
uluslar
##rat
##cağını
pazar
##isyon
yeniden
cin
hey
oluyor
izle
istiyor
incel
num
kötü
nedeniyle
##gın
##fer
mec
oto
uzman
yorum
düny
ilişk
yaşan
la
##tor
##lüğü
örg
##ünden
amer
asl
tük
mümkün
re
##can
24
##res
çözüm
##aber
##deş
belki
##ışma
100
cam
i̇lk
ana
00
veren
sınıf
oldukça
kaldır
araştırma
otur
yeter
##asının
beraber
saldır
ip
belg
ru
kamu
yetk
bize
##hangi
##ama
mahk
parti
kuru
faaliyet
itibar
enerj
milli
##lek
öldür
ölç
##doğan
herhangi
199
futbol
##leyen
organ
koş
yüksel
beb
anlaş
boş
güvenlik
rap
pu
ayak
##miyor
geniş
ham
##ıla
gül
takip
##imizi
##dana
başladı
giriş
buna
çiz
teh
##ust
##ecektir
ila
elde
konusu
bi
##yo
uluslararası
##ari
##imde
##yanın
mus
##mesini
##ğa
##mel
ilç
##ize
toplam
bayan
##alt
yönelik
fik
##umu
##imizin
##do
cumhuriyet
##tiğini
düşünü
yöntem
bab
gec
ali
##lanması
##şam
özellik
yapar
ikinci
net
hatır
mahal
zat
##ıza
rağ
ister
demek
mez
aday
##lül
##elen
saç
##elere
üzerinden
ora
##teş
aras
kuruluş
şah
görül
des
ap
##lim
polis
özg
##bo
bes
##üb
may
tarihi
dol
cih
##bat
##abilirsiniz
yaklaşık
##yen
ga
sına
ceza
dör
rapor
aslında
##ısında
olmayan
meh
##lardır
giy
yara
##lüğ
polit
##elerde
50
ilişkin
##laması
kardeş
rağmen
çıkan
##ilerini
dolar
rus
##başk
amaç
##dül
##yar
sig
##lanmış
oğ
gru
ilet
gerekir
olsa
tep
anda
kayıt
hızlı
almak
##amp
internet
öner
21
##eği
##taj
##ğini
iy
##lis
unut
yaln
yaban
##bilecek
örgüt
##fet
dakika
erdoğan
gerekli
bakım
##ent
hesap
paylaş
##muştur
kira
sürdür
##set
silah
veril
fay
##meli
vatandaş
dışında
##leriyle
vide
çif
ticaret
evet
gelecek
##diğimiz
öğretmen
##aş
fen
çevr
zaten
amacı
karış
yurt
yardımcı
##tiv
##ukuk
iddi
terör
##mıyor
##ekkür
##ıyla
sam
şöyle
##ilerine
şark
parça
##mir
yalnız
##vet
##ate
##ınca
gerçekten
##cısı
##unuyor
ortam
firma
##muz
boyunca
ekip
hukuk
adım
temsil
ölüm
##hale
yaka
dar
##ant
##ere
##mı
bal
osman
aşk
yaptığ
##kaç
##eyim
istiyorum
malz
başbak
yazı
cumhurbaşk
nak
nun
don
nokta
web
2017
piyas
bilgis
zorunda
##masında
banka
kurt
oyuncu
teşekkür
gar
aldı
doğal
sezon
##eğin
##ısından
##elerini
beyaz
tab
şart
çocu
##üğ
##av
gerçekleş
hatta
##mesine
otel
##sat
çeşitli
şekl
det
hik
hayır
sıcak
yarar
##imize
ke
adet
derece
yolu
tu
##izm
değildir
verdi
##efer
dolayı
kalan
devr
yoğun
##diler
kalk
edecek
edin
##lanır
birkaç
##meyen
nit
yüzden
co
bilgisay
##cılık
örnek
zarar
biliyor
izin
yanlı
##lemek
##yacak
##izi
hükümet
no
fayda
cevap
pers
nor
mağ
##sak
kaf
yapıyor
sürec
##dığımız
durumda
##inize
kullanıcı
gerekiyor
sp
sınav
ihtiyaç
tart
##mayan
oper
yapılacak
22
tarihinde
geliyor
##ina
halinde
mot
isteyen
giz
bat
sürekli
cihaz
benzer
doktor
##mişti
tip
üretim
kons
yo
mevcut
savun
##meleri
ekonomik
##üc
demir
mehmet
hoş
hale
vardı
yabancı
##dis
nde
cen
sem
biç
sahibi
##matik
i̇nsan
##inci
sanay
to
yarış
dönüş
##vek
##enek
##liyor
dost
yanında
##sen
tasarım
yetiş
onlar
##lif
ruh
hangi
##dip
sonunda
be
##mıştı
kitab
canlı
cid
beklen
##menin
##ırı
kuz
sistemi
##’e
çift
asker
ra
##elerinin
##pit
mesaj
ödül
başarı
##lım
##ton
##iğ
hayvan
dal
davran
kuş
tüket
verilen
çoğ
##tep
##üy
##ült
##talya
sol
##’un
##dığım
yık
str
fil
talep
bank
##ilerinin
sayfa
fon
dünyanın
##lâ
##lilik
the
kapsamında
##manız
##mat
şi
##isk
bilgisayar
dahil
vü
##luluk
23
geçmiş
dayan
türlü
dağı
it
fat
sizi
imza
resim
konuda
dört
br
##larım
tık
diyor
kre
sabah
##ov
##dıkları
kent
aydın
##müş
##esinden
##lanma
şeyler
yıldır
##ýn
akşam
demok
sayılı
yazar
##atür
sayesinde
sözleş
basın
oyna
müzik
kasım
ederek
person
anad
görüntü
##laştı
tra
milyar
soğ
##ılma
i̇zmir
mutlu
eylül
kalı
olmaz
belli
##ast
çıktı
tespit
sebep
i̇ngiliz
stan
yum
##yum
laz
emek
nis
kaybet
bakanı
servis
ettiği
##lin
konuştu
bundan
kab
mart
##asyonu
şeyi
kendini
başarılı
karak
milletvek
##şehir
şamp
güçlü
##ele
##ülen
##dığınız
2016
##larınız
##tay
kilo
işlet
##rah
##dız
dos
götür
çer
##üman
##dek
##layacak
##ıldığı
##ke
sırasında
bizi
##iran
40
insanlar
belediyesi
yıllık
olmalı
##ân
gol
siv
gid
ülkemiz
detay
nda
başbakan
pan
ilan
rak
temmuz
##iliği
and
puan
kir
yuk
ülke
emin
##üf
ocak
anadolu
kişinin
olabil
açısından
hastalık
##lığını
yanlış
##’ye
yılı
list
katılım
##ela
##mer
alır
zen
dek
müşter
##şık
lig
tesis
adına
ça
aralık
bakanlığı
##pa
gök
yıldız
##osu
##yas
##eder
artır
000
yoksa
yerde
dile
##ışı
pak
bunlar
##omo
kanun
##ılıyor
yürüt
nedenle
##hal
kapat
##ıyorum
özgür
video
sonucu
##lamaya
fran
yaptık
##hbet
arada
##düğü
müh
ekim
##izyon
fi
ata
doğr
tama
olacaktır
##imin
nef
bilgiler
##luğu
yere
başvuru
##layarak
birliği
nerede
mahalle
##üncü
kullanım
kuv
güneş
mark
eser
direk
düzenlenen
kredi
##medi
enerji
##ebilirsiniz
resmi
sohbet
tamamen
üz
##alım
##ğın
sh
##gen
şampiyon
kapı
##esel
şans
##anıyor
##gar
not
min
yaptır
##üst
pr
##emi
müs
##elerine
ten
vermek
tec
verir
bulunduğu
##edik
##stafa
##eyin
baba
##spor
günlük
açı
##ladığı
önceki
elektrik
le
denet
##of
alıyor
dep
##eceğim
##luğ
alış
akıl
belirlen
##fak
mayıs
##dük
haziran
onları
müdürlüğü
güney
hen
ünlü
sab
##od
yeş
mustafa
##ni
##evi
verdiği
geçer
##dığında
hâ
##go
orada
nokt
pas
diş
##ısıyla
##üle
siyasi
##rik
itibaren
tanım
##inc
başına
bağım
bura
key
teklif
salon
kart
seviy
##emez
altın
##atif
kullanılan
motor
arasındaki
aile
##bı
28
inşa
mücadele
hala
şeklinde
##fi
##ilerek
##iliğ
yu
daki
adlı
ateş
##mamız
##unan
trans
##ısını
##mayacak
işaret
yapma
##elerinde
aldığı
mobil
pey
bağlantı
2015
irak
##lığın
gür
toprak
##diş
güncel
normal
tay
##dikleri
##lerce
bebek
##malıdır
ciddi
varsa
satın
pen
go
araya
##liğini
##mu
tarif
##lıkla
##yız
düzey
düzenlen
fr
bayram
alma
merak
pet
kims
##ücü
şiir
etkil
##iyeti
##esiyle
malzem
eki
durumu
makin
meydana
sitesi
edilm
i̇slam
beri
marka
##’ya
##dal
alınan
profes
us
kimse
öncelik
lüt
çat
koru
##uru
çal
27
anal
26
mahkem
sel
##siy
##ünüz
kanal
hayal
##’dan
alb
meslek
anne
çevir
günümüz
tör
mon
kuzey
yukarı
##nun
amacıyla
edildi
hisse
müdürü
##mada
olmadığını
##ydı
soy
##ati
##rafik
rol
val
chp
##diğinde
day
oluşan
tehlik
mekan
karşılaş
nisan
proje
##sine
haline
##atürk
böylece
ahmet
##’den
##one
yana
alacak
vaz
ark
##lamaz
aracı
##altı
##iydi
teslim
##eceğiniz
##çev
eğlen
##lığa
balık
##neği
düşük
onların
katkı
kararı
cep
##isel
cumhurbaşkanı
sanayi
ağa
değişiklik
acı
kuvvet
çan
borç
prob
##ümü
otomo
lira
sayı
##manı
198
isten
süreç
##brıs
medya
çalışıyor
##’nde
##aray
günde
##ınızı
yoktur
yi
ic
##ia
##olojik
##ko
atatürk
##gisi
gerektiğini
boyut
yasa
lider
koşul
##lulu
##to
keş
2014
##düm
##li̇
personel
ihtiyac
şarkı
vurgu
sayısı
test
##’nun
uğra
olmuş
##dıktan
esas
##iyim
çin
##ale
##laka
sene
kıbrıs
##dam
##lanıyor
insanların
defa
##amız
iler
çerçev
yapacak
sunu
ordu
görmek
i̇şte
##ras
etme
sonrası
##üph
##par
süt
ediyorum
kişiler
##ade
##lıklı
yaşayan
##tiğimiz
kok
sefer
##co
işi
bunların
eg
bula
29
##leti
##50
perfor
etkinlik
##etik
problem
yeşil
sorum
eksik
tedav
kullanıl
olmas
iddia
müsl
mük
##üme
beğ
hap
bahç
##madı
gay
##meniz
##teki
programı
çiç
fet
dönemde
##tıyor
fakült
##lanacak
tarım
bulundu
imk
öğretim
lazım
uyar
yeterli
cil
edilir
kampan
öğrenciler
hed
##oloji
tedavi
süp
zengin
dam
içine
uc
altına
şüph
performan
buraya
##yım
##ısına
##lerdir
ilaç
##ucu
hır
yapabil
fer
dava
birinci
ıs
##i̇n
mıs
nes
ayar
öğrenci
##cağız
##cer
sayf
lo
##cağım
sarı
risk
çarp
numara
başlayan
birleş
##rol
##bur
amerik
memnun
reklam
almanya
miktar
meclis
temsilc
##onik
komisyon
##üştür
üyesi
fikir
i̇yi
halde
doğu
şid
ayında
ker
kala
tv
asla
sayın
##veriş
##say
eve
aka
##memiş
kural
rusya
bazen
ileri
onay
sonuc
kadro
##üler
idar
jo
##ite
##son
hikay
türkçe
31
##gör
ekran
girişim
##lasyon
operasyon
çocuğ
önünde
##lığına
del
##ansız
##ımda
düşünc
danış
##line
##eci
deste
##uar
##rac
tarz
psik
stand
olmaya
eleştir
amerika
sorumlu
sokak
sevg
mühen
derin
ton
##dun
sıkıntı
saldırı
lütfen
##orta
fener
arz
kayde
##duğunu
##inç
ettik
osmanlı
sonrasında
poz
lim
kamer
çay
##deniz
lisans
kaliteli
edece
adres
belirten
peki
davet
henüz
ül
altı
birey
anlay
hizmeti
kırm
ücretsiz
aktar
döv
##ınıza
uçak
içeri
başında
söylü
##eceğiz
ef
efen
##lari
doğum
olursa
antalya
nüf
##lisi
2013
##işleri
artış
yeri
##iliyor
boğ
aj
tıp
##geç
ettiğ
müslüman
kendisine
dışarı
##cılar
##med
bitir
dünyada
fes
ulusal
ağust
bahis
##ımıza
##inizin
onlara
yönetic
kemal
bulunmaktadır
bölümü
bence
yaşanan
sizlere
fiz
##imli
etkili
##taki
##ilecek
yı
mim
i̇m
##ratik
bol
yapılması
zam
park
huz
##best
eylem
etik
kurtul
fırsat
şubat
60
işe
bulunuyor
ant
söyley
sine
pla
kup
aylık
ayır
rad
sağlıklı
##lardı
##büs
ağustos
dağ
##vaş
hisset
eur
##egor
##evizyon
yandan
ted
##lenme
kem
durumunda
bursa
hol
mutlaka
##arım
yunan
kısm
roman
köp
düğ
kullanı
değerli
##ilendir
2012
etmiş
benz
dolu
beğen
##ırken
yardımcısı
##terek
##etler
başlan
tartış
eşya
grubu
barış
oyunu
tabii
çalıştı
sil
##ger
##niyet
olmadığı
dolayısıyla
araba
türkiye’nin
i̇ki
yansı
komut
büyükşehir
yerel
##sef
esc
anay
milletvekili
def
tez
sırada
##hi
##rail
##istik
hesab
güm
serbest
yargı
hizmetleri
##anlı
iletişim
çö
##gam
far
edilmesi
zey
##rin
kurtar
yapacağ
##yonel
görüyor
mat
##mm
kıy
##ura
yönetimi
gıda
##ımızı
tutuk
parç
i̇b
500
açıklamada
üye
##ital
##yıl
deki
çocuklar
rahatsız
##bin
##eyle
neler
dışı
bon
düşünüyor
müda
##tere
arama
##seniz
##emin
escort
siy
i̇k
alışveriş
bölge
veriyor
işte
##zon
##atör
##lıklar
yerleş
##ısının
bed
yavaş
##ult
batı
##asa
##cık
politika
kendine
alanı
##meni
##kenin
yetkil
kelim
##üştü
##ku
başta
##imizde
çevre
##larca
##ullah
##bay
firmaları
muha
##ene
turizm
çoğu
moder
suriye
beşik
tatil
tane
kategor
##larınızı
##asıyla
##gaz
##sini
profesyonel
##bahçe
üçüncü
enf
deneyim
sanırım
erken
car
siyaset
koca
duygu
ürünleri
kış
bunları
kaydet
##’i
##ulan
süper
##eliğ
ederim
otomobil
aray
esk
##ova
yapıla
hüc
mur
alanında
konuşma
##str
pop
teb
teknoloji
ces
seçenek
ez
sayıda
doldur
vergi
sap
naz
birisi
meş
tahmin
##elerden
çiçek
piş
tor
yazılım
televizyon
standart
yazılı
örneğin
yada
askeri
çalışmaları
##mayın
belirtti
kaldı
##ıştır
sonraki
bağımsız
eğitimi
##eksiyon
yayım
ni
bilir
yaşında
me
taz
##âr
##dit
akadem
##miyorum
yapılır
mühendis
finans
##ılmaz
##ulması
##enler
##umsuz
##ilmiştir
kel
##tiler
sağlamak
plat
konut
yapmış
##biliyor
gazi
ref
duvar
harika
olun
sim
politik
heyec
sip
35
##nek
öden
##dr
şiddet
##masından
faiz
##latas
madd
sert
mor
başlat
modern
nakl
samsun
##sem
kişisel
ödeme
karşısında
beşiktaş
kırmızı
op
bankası
##20
##lıkları
##imleri
arac
fizik
türkiye’de
##latasaray
##siye
##yse
atı
##har
yarı
şik
i̇srail
belirterek
ilgi
siyah
##lığında
kulüb
huzur
##amet
galatasaray
kesinlikle
##artesi
ce
##ess
tuz
##gr
##dıklarını
hafif
##alar
çap
arası
i̇ran
kana
kalp
##ımızda
ülkenin
şehit
##dikten
##leyi
evde
tatlı
##edim
ir
##sim
derneği
fiyatları
fakültesi
##ä±
kum
güc
yerleştir
##lamış
aya
##şey
##tt
##larımızın
##tern
baskı
red
##acağı
form
alanda
gösteren
gem
paket
zev
şiş
sigorta
197
##muyor
##’nda
yanıt
gördüğ
taşıma
müşteri
yiy
vücu
sağlar
strate
##onya
emniyet
##lenmesi
genellikle
##izasyon
söylüyor
kendisi
##asından
new
katıl
sul
karakter
alına
##anlar
##laşı
dis
##edeki
fenerbahçe
kılı
stratej
yerinde
bö
##ğını
sivil
konum
##ımızın
saha
##larımızı
prot
##lediği
basit
##layıp
tecr
olduğuna
yaparak
##tarı
##ze
uygulan
nedir
bilgileri
kürt
akp
amel
depr
orman
takdir
hayatını
tok
##racat
şeker
peş
beden
dosya
ec
olumsuz
olmuştur
asıl
odası
ettir
por
##türk
##yet
##rek
kop
giden
toplu
yah
bür
tanrı
##ülü
alarak
ikti
##undaki
##sas
gönül
##emek
döneminde
düşür
##rika
kans
##ündeki
##esiz
yılın
çıkış
dök
yapmaya
işbir
ale
öne
trab
edeb
##baş
45
gelin
kapalı
sona
fab
öncelikle
musun
2006
yolc
bec
##’ı
reh
ge
##ınızda
gizli
tutar
sağlayan
yapım
2011
peygam
i̇h
##laşma
projesi
kral
çelik
önüne
almış
##abet
korun
##sinin
##lav
##öğ
kanı
bet
##imler
##’te
##ps
##nam
davranış
“b
##iri
##liğin
işç
##lendi
kavram
hakkı
##maktan
adr
##liğe
hepsi
##mür
cinsel
##liğinde
##emey
namaz
i̇ngiltere
lez
##amı
80
##lal
hayata
göç
zorun
feder
##inizde
cad
##i̇r
##anet
90
fransa
vazgeç
##başı
alıp
sipar
##diklerini
yalan
##sk
online
bende
yarın
##tepe
açılı
sahn
##dat
##biliriz
hüs
kendisini
mill
##raman
ucuz
koruma
ihti
##elerinden
öy
duyur
lin
yalnızca
arab
gr
kullanarak
yılda
buluş
şer
gide
sorunu
##elt
yetiştir
##arken
##kk
##ledi
trabzon
yıllarda
aşağıdaki
##layın
##he
arttır
etmeye
bom
başkanlığı
05
yaşındaki
##emmel
##malar
gören
peygamber
olumlu
##zet
içi
##tey
tiyat
yılmaz
taşın
eşit
##lerim
festiv
performans
adalet
saf
arkada
##elerle
atan
i̇ngilizce
saygı
köş
şen
biliyorum
soğuk
tören
katı
km
kıl
etraf
transfer
##bilmek
gerekmektedir
aşırı
kale
ortalama
##uç
70
herkesin
nur
platfor
ışık
sonucunda
##ly
##’ta
##haba
##yip
takımı
mod
##ons
geçiş
kazandır
yüzyıl
blo
kli
edebiyat
##lığının
mükemmel
edip
üniversite
kağı
port
##her
boya
##ildiği
geçtiğimiz
kahraman
insanın
kadınlar
##irken
##bis
##ebilecek
çalışmalar
##mesinin
bina
tavsiye
dakik
avuk
oranı
sik
hac
##ekim
sipariş
hanım
##car
misin
tiyatro
başlar
göl
##no
zira
yola
yasak
##sizlik
çor
kaçır
##aza
gündem
hata
hi
kahv
azal
##ersin
klas
##yer
savunma
merhaba
soruştur
##larındaki
##lata
36
##ww
##ğan
grub
##mit
sanki
olmasına
##tığını
##beri
ediyoruz
tren
yapıldı
isimli
##diğin
futbolcu
##iyiz
sitemiz
doğan
arap
öncesi
cer
edilmiş
##hane
şa
trafik
gelenek
01
##lanmıştır
günlerde
yatak
vit
demokras
kamp
partisi
##cam
tanış
##emiş
nüfus
memur
##anan
##ılmıştır
##elidir
tır
aks
kriz
elektronik
ölçü
kişilik
##ahat
196
##ho
##lenmiş
yararlan
servisi
##ii
##antaj
##lerinizi
çıkıyor
sultan
##ağı
##ıma
##cusu
##ner
mic
##latı
i̇lçe
belirtilen
elbet
##liğine
fel
önümüz
##ham
konus
##book
giren
##anlık
sürede
büyü
if
##cilik
keyif
##ogle
##iği
cem
meydan
anlamda
yaygın
akıllı
gücü
düşünüyorum
hd
diren
##ilebilir
kapas
##mur
##nu
##ros
düzenlem
şar
öngör
amerikan
32
##hp
civ
bahse
biçimde
mezun
##ındır
www
mel
##ayıf
süresi
edi
yaşlı
##yap
ayı
hus
bilinen
rez
kayb
durdur
karıştır
buy
sü
geçti
olmadan
zevk
ameliyat
##liler
##isinden
##iyer
##urken
endiş
##desi
verecek
zayıf
birden
nedeni
katıldı
google
odak
site
ima
va
mahallesi
##uldu
düşman
##tis
şub
mimar
dizi
uygula
##dy
kızı
##üstü
olacağını
birini
##ciler
otobüs
##ştık
##âh
ürünler
lik
##sinde
doğrudan
istediğiniz
09
##yası
kus
birim
con
uyan
rest
neredeyse
güvenli
suyu
edeceğ
##’daki
sebeb
filmi
##kar
yav
gelmiş
harca
##esindeki
##gal
kitabı
2010
ide
ism
sahiptir
açıkladı
##iyordu
dahi
##isiyle
aktif
gerektir
çab
##irler
ondan
etmektedir
fransız
##landığı
##cil
##muştu
vücut
umut
##ry
##dağ
##alim
yüzünden
##mamış
ortadan
murat
alk
02
önlem
tablo
olmasını
üzerindeki
çoğun
avantaj
##lardaki
##orm
kök
gur
mesel
alım
van
##çak
buradan
çocukların
anah
üstün
jap
ters
geçerli
vek
metin
çaba
##erseniz
hasan
acil
ex
sk
##süz
##cının
vakit
##urum
##öğret
##kale
piyasa
duyg
gali
cilt
##ayla
adını
euro
##sında
şef
hz
yürüy
sanatçı
temin
zir
rum
söylen
yed
##ersiz
haft
kayna
##ımın
##fat
win
aca
detaylı
##ron
ağaç
ifad
küt
##ısız
##’na
anlayış
kod
2005
##landa
çeken
taban
şaş
##üny
bekliyor
##zi
ihtiyacı
##ser
cm
savaşı
istih
etkisi
krit
adana
zih
kaydetti
kişilerin
önceden
##memek
##iyorlar
çak
buz
##eral
olduğumuz
imkan
ısı
##hat
anlamına
komp
harit
cuma
derec
yerini
getiren
bakış
##rahim
işle
nitelik
33
bask
##imden
ülkede
itir
##ire
öt
maliyet
yıldırım
seyahat
rakam
çıkarı
diyerek
lar
##ıyoruz
sorgu
depo
##dığına
etmesi
##his
sağla
##ılabilir
işin
kiralama
eb
konser
bl
##inal
hakları
pil
##abilecek
i̇kinci
##layıcı
restor
##memiz
mali
elbette
günümüzde
kullanımı
ekonomi
seks
fatih
ilgilen
ihracat
rece
rü
otomatik
gidip
misaf
şikayet
kendilerine
##lığıyla
##masıyla
şun
##rim
veri
bölgede
bugüne
özellikleri
gitti
ney
##sur
diyen
bulunma
mesaf
verildi
##uyorum
müdahale
istik
söyleyen
##çuk
##dün
gazetec
deng
albüm
köpr
direktör
sö
hoca
2004
ağrı
##allah
çerçevesinde
birik
bahset
belirli
##tuk
##udi
ayrıntı
##çiler
##meyecek
avukat
ticari
hakim
farkında
posta
hazırlık
koç
ler
kısmı
cumhuriyeti
##yüz
##köy
##amaz
büny
vb
dedim
olanlar
hit
dünyaya
dekor
başlangı
bitk
cüm
##ulur
yıllar
tipi
##lerimizi
kanunu
sağlayacak
ep
kampanya
deney
##ınar
tecrüb
diler
verilm
tehdit
##kel
hediye
##mediği
içerik
akl
kör
##10
danışman
lu
pkk
final
##ti̇
konya
biy
üs
ert
##lanarak
bağış
##tuğ
konfer
giderek
kaza
pozisyon
katılan
kurban
ade
##ws
modelleri
ettiğini
##ation
analiz
ajans
petrol
sistemleri
pren
olduğundan
recep
##ds
haberleri
##ator
doğrult
taki
özelliği
istedi
sta
sorumluluk
sunuyor
hin
##fı
##üyle
##’ne
şif
##iyan
metre
##’deki
toplumsal
usta
kulak
anlama
onunla
becer
300
terk
zeytin
34
birinin
yasal
dip
sağlaya
görünü
yapabilir
binlerce
mısır
##ıklı
cas
sonuna
gelip
altern
ayakka
jan
ri
kulüp
iptal
yerli
başlıyor
sevgil
köpek
heyecan
dışişleri
##bal
##larımıza
ofis
duruş
vad
##anlığı
##mail
eriş
##tın
face
falan
yapılmış
rast
##düğünü
##aka
08
serg
##hn
hapis
anayasa
kred
istek
iktidar
i̇nternet
##erken
##’yi
önümüzdeki
“k
erz
vermiş
sinema
olası
müt
##diniz
almaya
acaba
öte
moda
yenil
müşteriler
düzenli
parçası
sinir
anti
eklen
##ong
##land
he
est
okuy
yaşıyor
sakin
fu
açıkla
diyar
##onu
##vik
mutfak
içeren
hayatı
ölü
##ebi
gelişim
getirdi
zek
2007
kıya
kapasit
##yu
onur
kayıp
çağır
yayınları
çet
##dil
duyar
##ata
##ino
##zu
alternatif
insanları
gençlik
i̇dar
03
kalma
yürür
##doğu
açılış
hazırlanan
benimle
kaymak
içindeki
2000
istedik
eh
sabit
usul
##qu
tayyip
ince
ja
bozuk
görsel
yatır
ilçesinde
yumur
yaparken
kalın
##ayım
bununla
i̇brahim
bölgesi
arkadaşlar
koc
##arında
mir
tit
işler
bölgesinde
i̇span
bis
taşıyan
uyum
oğlu
##istin
olanak
bilimsel
oyunları
##işi
tarihli
süren
özen
##ht
göğ
geb
suy
doğrultusunda
verme
i̇lç
##yken
boğaz
yü
kesim
olduğunuz
yapımı
sağlam
##öğretim
##lır
araz
babam
##dra
dans
##makla
kanıt
evren
ülkemizde
zaf
##ever
denetim
çalıştır
##eğini
ayk
başken
cok
##tion
##inda
organizasyon
kurulan
zamanı
tw
##bilirim
güvenilir
kaya
##emen
hastanesi
##düz
saray
##embe
##ýr
üyeleri
kalite
bilmiyorum
dey
süreci
karşılık
##eğe
hüseyin
endü
pi
kurumu
dönüştür
sonuçları
bekle
bilet
yur
kere
kılıç
elbis
rüya
kurumsal
ömer
kanser
##iner
işlemi
##tedir
fiyatı
ağz
##bi̇
mavi
zamanlarda
turk
geril
oldukları
şimd
##ağa
küresel
selam
izley
ins
dikkate
kimlik
örgütü
gidiyor
ligi
##lor
konak
ödem
şaşır
##teşem
geçici
ufak
görünüyor
##uluyor
##celi
büyüm
vi
dokun
kişiye
evlen
yetkili
kalır
##tl
şık
mesela
tanıtım
edebil
06
tanın
zorunlu
tepki
maden
##rem
facebook
kimi
temizlik
önemlidir
##iklet
##luluğu
lir
bedel
gözlem
müsa
gazete
##i̇m
##sını
yönlendir
yör
hassas
55
ettim
dönemi
set
##cisi
yolcu
çeki
kilis
2003
muhteşem
olağan
##liğinin
şirketi
tb
2009
dij
##ulmuş
benden
fık
2008
muham
dernek
devletin
teşvik
tartışma
ramaz
##bel
##stit
adamı
2002
şeyin
inşaat
##gre
##ığ
##isin
gitmek
metal
07
değişim
maçı
sağlan
48
vir
##acağız
renkli
lezzet
##jen
mit
##ilerden
üretic
yedi
kendilerini
kadının
değeri
##usunu
##leriniz
##maye
hızla
koor
sağlığı
daire
çalışması
süs
bı
yumurta
gerekç
kanunun
htt
toz
ib
aşağıda
demektir
yarım
nefes
sebebi
konuk
desteği
lok
##müyor
##oyu
kamera
kalem
refer
öğrencilerin
##sit
değilim
misafir
mikro
kendimi
ob
babası
lab
çıkacak
sendik
muhtem
38
##imizden
geleceğ
alınması
görüşmeler
bulundur
geldiği
##lıdır
rekabet
tanıt
açılan
04
tedbir
eşi
ismi
##are
dijital
coğraf
anlaşı
##anda
##leşme
##ğında
##dılar
kapan
görülen
rab
ayrıl
##lıkta
şube
rüz
37
niyet
##eliği
uzat
kültürel
bm
değerlendirme
mhp
ilginç
istediği
gerçekleştirilen
ekley
##mesiyle
görme
##bey
donan
kalb
##lemeye
etkilen
##i̇k
evden
dini
##diğine
birer
nakliyat
mür
yaşaya
yangın
klasik
uyarı
genelde
eleman
ani
güzellik
ran
ürünü
##ff
sevgi
yeme
mini
sekret
etki
yurtdı
halkın
sevgili
##ud
konferans
tasarımı
paşa
uygulaması
anahtar
gösteriyor
görür
girdi
alındı
sizler
##gılan
##enk
malzeme
gözalt
bilinç
yumuş
halı
okuma
ediliyor
radyo
##duğumuz
##emesi
##tacak
##nin
üstüne
çağr
##okul
söylemek
kağıt
belgesi
esn
yel
blog
##nik
idi
çalışı
##les
ulaştır
çanak
i̇liş
bütç
popüler
##ınma
kadınların
amaçlı
başlangıç
kafa
##bb
aldım
##şet
makam
sahib
##cağına
kıyafet
##bank
taraftar
##ksiyon
seyir
kurs
yaşadığı
ilişkiler
sevin
bilgilendir
takv
denk
i̇şlet
pap
##asi
ca
##mara
iken
sün
sever
##di̇
demokratik
app
yunanistan
sıv
##mar
boyu
altyap
itibariyle
sermaye
azalt
dalga
##usal
tali
hayatta
##leyici
birşey
yedek
istiyoruz
##sh
##’ün
##tak
##bon
olmayacak
havuz
masa
şük
kullanmak
yaptıkları
çekil
kullanılır
kulübü
unsur
almaktadır
hücr
kilomet
günün
75
edilmiştir
##i̇z
##i̇l
ramazan
dakikada
mün
sir
malat
yağmur
stat
tom
##alan
kayded
enflasyon
seçen
görevi
##tanın
44
teşki
65
geleneksel
sıf
##sey
ederken
işlemleri
düğün
##uyucu
birbirinden
##i̇t
darbe
##gü
lev
##leri̇
##bakır
##distan
koordin
yolunda
çocuğun
##ment
söyler
##luluğ
fonksiyon
platform
##isyen
##labilir
##dukları
oranında
tarihleri
aley
bulmak
##laj
enstit
anı
edebilir
tepk
##pe
##arya
kartı
mate
deprem
vah
planı
lid
##liyoruz
ayakkabı
##acağını
##ülmesi
##amik
tim
##ick
sözleşme
dilek
takdirde
avust
yenilik
uğur
gelişmeler
##des
##ard
bulunur
evlilik
kâ
faktör
birleştir
suret
mezar
herkese
alabilirsiniz
nik
halen
komş
değildi
azından
##zan
ilişki
yoktu
emir
##sına
ekib
dinle
##manızı
uçuş
vs
##nan
##isa
##nak
##üldü
mül
rakip
dür
ülkeler
##wn
numar
benzeri
zirv
kaçak
konuşan
##lılar
asya
mahkeme
##ıklık
cinayet
ışı
kısım
sürücü
##isiniz
basket
##anacak
##ilmektedir
esna
ihale
ilçe
i̇sv
i̇çin
kaynağı
bazıları
antren
okulu
diyarbakır
##mekten
kimsenin
hissed
özür
elinde
##ore
##antep
biçim
##laşıyor
##meyin
york
olmayı
koltuk
modeli
beyan
beyin
39
##ılmasını
cevab
fo
nat
güvenliği
izlen
olduklarını
i̇talya
tap
işbirliği
##gesi
kullanma
düzelt
şunları
##demir
çıkart
senar
mevzu
yanına
##melidir
açıdan
sorunun
ulaştı
##jinal
yönetmen
yürüyüş
##ırlar
aralarında
ph
dua
amac
diyet
milletvekil
sağlıyor
##müştür
##gah
rej
garan
maddi
##aba
bez
edebilirsiniz
kuma
42
pişir
##ınızın
kırık
anlatan
korku
potan
evi
kos
sigara
gümüş
anlaşma
##ılıp
sözleri
##ülebilir
sıkı
##melik
emekli
devleti
##stik
belirtildi
şunu
windo
tun
##kaya
aktiv
maddesi
##itir
##so
##yasal
gözaltına
potansiy
##erv
edilecek
yüzey
nih
sorunları
isti
##parator
##don
##sızlık
taleb
vol
şehr
fuar
##duğum
tev
doğa
uzay
##mos
beklent
şeri
müst
bakımından
##dev
##ılmasına
gündeme
bunlardan
##madığı
erkekler
prens
havalim
##12
gördüm
yaklaşım
hür
bağır
##ruk
##iki
cami
döviz
yoluyla
##şi
incelem
iade
çey
işçi
##okulu
yarışma
gu
##işehir
##bilen
seninle
yaşar
teor
yönünde
yiyecek
##ity
##bileceği
düşen
oraya
komisyonu
##po
önde
fiziksel
##lý
arkadaşı
noktada
adeta
##vel
gazetesi
##maması
iyice
cerrah
##ıf
##biy
yerden
lideri
2001
imkanı
hediy
##leyman
endek
bahar
dolaş
karşıya
##mesinde
##ysa
yılından
devrim
##liy
milliyet
olduğum
istanbul
##cağınız
karadeniz
göm
##lerimizin
##vat
dük
53
gaziantep
##aseb
##lacaktır
##ding
##lüğe
yolda
sözc
çocuğu
filistin
##kur
alet
karma
##liliği
pir
güçlendir
başlayacak
##acağım
yaşat
sevk
lon
je
üstünde
karşılaştır
yayınlanan
yukarıda
sertif
köyü
müzak
yapısı
yaptım
sus
güne
windows
kalmış
yürü
olmadı
insanlara
##gs
##ikat
yeten
çocukları
##sör
oysa
durumlarda
john
satı
tbmm
##ilyon
##ell
wil
bilgiye
cumartesi
##yol
varlık
##paşa
mahkemesi
incelen
özet
##ğin
47
##pt
birbirine
süleyman
husus
ekibi
gördük
buluşt
halka
bakın
sch
seri
##dığından
adayı
kupası
anlamı
hadi
raporu
besin
kursu
haberler
##ğına
rehber
uyuştur
400
slo
üstelik
derg
hâlâ
##sup
doç
las
gösterir
numaralı
kullanan
##ileştir
gerektiği
olsay
maaş
silahlı
verilir
##ruf
aykırı
ortamda
##eceğimiz
##rük
lisesi
vitam
bakalım
parmak
vo
##kon
deri
yenilen
sof
verg
işleri
telefonu
##rama
yıllardır
görünüm
hekim
##ükle
özgürlük
haklı
##olog
kilit
olacağı
lük
bayrak
yüküm
cenaz
194
cezası
nem
wor
geldiğini
üretimi
siteleri
vermeye
garanti
düştü
kariyer
lit
üyelik
kaps
##isti
demokrasi
##masın
diplo
##ji
alak
niş
istiyorsanız
düzenleme
adamın
kullandı
fazlası
dili
muhammed
##gat
uğraş
##enn
maz
##biyet
##mo
##masyon
43
dağıt
link
müdürlüğ
gereği
oldum
hadis
şeyleri
##ği̇
çağrı
##lerdi
parla
bireysel
ır
kimyasal
ölçüde
uyku
yaşamak
bildirdi
düşünce
kazanan
vali
##tc
ege
dönüşüm
çekti
##ray
rö
bölümünde
şahin
##amıyor
##eceksiniz
duruma
zamanlar
46
##kal
arş
ilave
tasarruf
##bek
başı
kolayca
##esi̇
demiş
##şallah
oynaya
mersin
olmalıdır
insanı
muhaf
yetenek
ulaşım
##ıldığını
##int
andro
niye
firmamız
##ilerle
##dınız
akdeniz
toplantısı
##bilmesi
kelime
felsef
büyüme
sonsuz
hot
mutluluk
##larken
belirlenen
ast
değin
uça
kargo
alınacak
##seri
gelişmiş
disip
kahvaltı
görünt
olamaz
cennet
çanakkale
kahve
zafer
mekt
indirim
terörist
yönetmelik
##ilerde
41
##anız
tü
bilen
193
kızıl
##’u
sc
halkı
##uyoruz
##illa
##23
yerlerde
##rom
pratik
inc
verilmesi
festival
fan
##ıldığında
dalı
yönetmeli
150
mobilya
195
esnaf
gurur
arzu
##cıların
öncesinde
##ilerinden
ndan
hip
şeye
jandar
pazartesi
##memesi
günler
pam
bilmiyor
tehlikeli
manz
gösterdi
##liliğ
abdullah
yitir
lan
mağaza
pe
ii
ekipleri
gümrük
fetö
malatya
hatırlat
hasar
seviye
ulaşabilirsiniz
mektup
olayı
##teri
paylaşım
##laz
##utu
imkân
##larımı
sporcu
matematik
toplan
çam
okun
log
olmaktadır
yerler
bomba
qu
##ahh
ur
burası
uyuşturucu
##hone
tı
##lası
##asındaki
anlaya
##irim
getirmek
kavuş
yazık
##ograf
meml
çik
görüşme
sessiz
selçuk
##bot
##lerindeki
afrika
##cılığı
nev
kaybol
tuş
##day
bizler
attı
protok
çıkmış
hazırla
etmiştir
yapabilirsiniz
gecik
açma
türü
##ks
pazarlama
alkol
bulama
ziya
54
söyleye
tad
genelinde
rezerv
kaçın
bütçe
itiraz
##lete
atık
yakından
neyse
toplumun
algı
soruşturma
sürü
##alesef
ful
sektöründe
nec
bilgisi
##ilmesini
hakan
##veren
##ub
muay
##diy
nden
sürece
şehrin
ihtimal
kaş
sıfır
nam
klima
prote
sonuçlar
i̇nşa
memleket
kongr
post
saniye
neh
yaptığını
temas
efendim
zamanında
maçında
##ülük
paris
meyve
##eceğine
zinc
maalesef
##itesi
antik
hakem
salonu
##leki
eğil
ekmek
dayalı
nefret
okur
teşekkürler
ağız
nesil
sebebiyle
mail
bünyesinde
##ülür
sunan
bodr
kazandı
##git
meden
cins
geliştirme
##hum
##tılan
##cası
##lesi
haberi
android
vic
mac
##zat
edildiği
buldu
alanlar
##lerken
adlandır
sahne
yükselt
##rag
gençler
tedavisi
sıvı
ideal
annem
birinc
istedim
yakış
gayet
sözü
vermektedir
verim
labor
ailen
hayran
##’yı
ödülü
##mesinden
vakfı
başlama
49
başlaya
kütüp
maçta
##mıyorum
sız
göğüs
##oto
salı
biridir
konularda
alınarak
isterseniz
##anıyorum
panel
istediğim
##teyiz
##sızın
bileş
rektör
bos
##usuna
karanlık
karay
##si̇
beslenme
##leyerek
bro
çıkara
protokol
muhale
##duğunuz
##ori
aracılığıyla
kenar
yolculuk
suna
civarında
##kır
düşünür
bodrum
##menizi
eğlenceli
çalışmak
sırt
kamyon
iğ
tüz
filmin
öğle
artan
##ileş
mensup
##leyecek
süredir
organize
tal
yaptığımız
meclisi
i̇smail
borsa
uzmanı
eskişehir
egemen
##onun
vererek
fabrik
sorunlar
mm
##ki̇
kıymet
##fe
##acaktır
##sü
##araj
##melerini
etiketler
tutan
karşın
i̇let
##yaj
kocaeli
damar
misiniz
sürpr
anlattı
alanları
##eyecek
hemş
##lenir
banyo
yaşama
kayseri
darb
kısı
##elendir
basketbol
52
mesleki
kutsal
hali
##imle
çil
##ebek
kalıyor
çizg
yapıldığı
kore
edilebilir
##denin
##çisi
##ansiyon
##şe
eya
gözet
hatırla
kazanç
hollanda
dikkatli
tazmin
çarşam
##rop
makine
firması
ümit
baktığ
gidecek
yetersiz
##tek
ira
düzeyde
forum
fabrika
laborat
zemin
##atistik
birine
##cin
ris
##tah
##emeyen
istihdam
parlak
##satı
arkadaşım
turnu
##los
##gini
umarım
makinesi
yaratıcı
##ılmaktadır
bildirildi
kiralık
vakıf
korumak
##dunuz
işgal
ailesi
kıv
sayede
alışk
alınır
kalıcı
verici
roma
noktası
muk
makyaj
##ima
mp
tanesi
sahil
“h
gal
##ısal
uk
raki
kullandığı
bonus
##lerimize
##lanabilir
##melerin
bulut
uyumlu
maruz
başlıklı
##pat
##ilmesine
çarşamba
##fik
arşiv
##balık
aşı
hükm
günden
kuy
heyet
esnasında
yöntemi
akademik
##ilmez
##iyel
##mis
yapıp
endüstr
ayda
58
kumaş
ytl
##lıca
##iyo
ul
##dığın
##ib
oyunc
aziz
gerektiğ
laf
##liye
##ilya
hükümeti
farkı
derecede
birleşik
col
hizmetler
seven
harekete
twit
buyur
##şten
rahmet
kalacak
dolarlık
merkezinde
##iyorsunuz
günah
kusur
##ebilmek
i̇p
zorlu
hayatın
uygulamaları
tamir
iphone
i̇t
sivas
gittik
londra
##sul
ört
belge
topra
56
##imini
jandarma
barındır
numarası
hastalığı
zorluk
##mız
nö
gayret
##ash
sekiz
som
bulgar
play
annesi
çekici
gerçekleşen
gözük
çalışmalarını
özgü
##lemesi
##lent
##barı
perş
bakanlık
malzemeleri
##usuf
kriter
konuyu
senden
başlamış
istemiyorum
aşık
fatura
yolculu
##tel
i̇şleri
şirketin
##ona
çatışma
beda
hu
inci
bayramı
##edi
##tıcı
istediğini
derken
tutul
uğr
“bu
yılının
kutu
apple
finansal
tef
gerekse
ahş
aslan
kısıt
adresi
ağr
##ral
kolaylaştır
##stan
emre
bunlara
##ýþ
kemik
keyifli
sınırlı
sanal
olunca
evinde
rüzgar
##ây
kuran
##diğimi
##uzu
alması
aklı
erzurum
mantık
market
##val
##ane
duruyor
yusuf
hariç
##ie
bugünkü
konseyi
##11
pamuk
##ğe
dola
##bbi
telek
turist
##ump
##talyan
64
liste
##ilip
##ektif
##ft
verimli
düşüş
bekleniyor
olmaması
##liam
##mediğini
i̇d
muhalefet
mağdur
tüketic
verdim
pis
lak
plastik
##mamak
uygulanan
etiket
seviyorum
##asız
kimin
57
koz
çabuk
cesaret
##yiz
garant
gelmesi
efsan
olama
bizimle
önemi
federasyonu
yapmayı
##elle
##ülüyor
bağımlı
yeterince
psikolojik
eminim
gelince
yılları
perşembe
lise
vade
sunulan
##suzluk
gemi
##lıyorum
sunul
çizgi
büyükel
##uman
2019
orhan
inanç
çekim
sürpriz
##elerek
yoğ
i̇nşaat
istifa
##landığını
yapın
sm
ettiler
muhaseb
traf
##sy
##oo
hakkındaki
çalışmaya
sesi
yönel
##bileceğiniz
##lamayı
harf
edilmektedir
kanat
##ğının
yaprak
mülk
altını
tanr
i̇spanya
twitter
olmaktan
##uc
##lus
gördü
oyunun
garip
çalışır
görevl
festivali
kendinizi
ahşap
gözden
yapması
bulan
##mr
hükümetin
baban
yolları
##çu
geriye
ust
http
öldü
kaymakam
suretiyle
##madım
ücreti
anket
sakat
metrek
bulabilirsiniz
buradaki
cema
kur’
##isiz
nez
zan
beklenen
inf
mevcuttur
star
kararlı
##dd
olurdu
##malıyız
akın
bülent
geride
51
##jan
bulur
##leye
aşkın
bedava
formu
##ph
##unuzu
anında
evine
üstü
250
projeler
isterim
ortada
oğlum
erişim
grafik
kalkınma
gündüz
çök
deli
vadeli
sön
sergil
##mut
kapak
##iyorsun
fas
nükle
verilecek
##bileceğini
bulunmak
##paz
mesle
##tifak
##ts
tir
günleri
alama
musunuz
çıl
köt
alabilir
##larınızın
başarısız
miktarda
##esto
bisiklet
muhtemelen
anayas
biliyoruz
faydalı
kullanılması
##tayız
stres
##oft
eme
hatt
siyasal
etmez
cal
yapılıyor
açtı
porno
giyim
“s
blok
açıklaması
evin
çağdaş
düzenlediği
emlak
lam
kalıp
disiplin
##yeni
i̇letişim
istis
tıpkı
my
olduğunda
hepimiz
çoğunluk
itha
hid
192
geldiğinde
zehir
yumuşak
sizleri
ente
isteme
montaj
##mali
paha
aa
alev
ayet
telekom
##red
konfor
##içi
maliye
ag
güler
ceb
harek
sanıyor
ahlak
görevlendir
ori
işlev
caddesi
galibiyet
taraftan
yıla
oyunlar
şahıs
öğrenmek
üm
hil
bulunması
olaylar
##yim
vel
i̇talyan
arkasında
hazine
yönde
devamı
fe
gelişme
masraf
temsilcisi
raf
bitki
öğrencileri
haftada
##azı
öp
kamuoy
toplantısında
kodu
yüzlerce
nereye
koleksiyon
##imp
dergisi
rekor
pilot
uydu
hindistan
##diven
teker
denizli
##i̇ş
kabil
##ow
kaydı
göstermek
sunum
yurtdış
nereden
macer
haş
üstlen
yil
##sever
##ılarak
hayırlı
içinden
tuva
kişiyi
saati
pencer
tarihinden
suçlu
seçimi
##lâm
göst
##leyin
lanet
iyileştir
##lerimi
##yak
##amızda
##fed
donanım
tarifi
aksine
full
azer
etmem
çır
atöl
olduğumu
191
unutul
bahçeli
çuk
netic
dayanıklı
çıkıp
##liyorum
arayan
forma
arıyor
hastalıkları
mevsim
şehri
eskiden
hast
sakarya
##rist
bahsed
##diğinden
doktora
ceph
##lanmaktadır
sisteminin
##ciğer
şanlı
bacak
havaalan
##ğla
delik
bakar
eğlence
bıçak
kaynakları
##bahar
akış
##lıktan
ederiz
##kil
komşu
bayanlar
potansiyel
süreçte
iletiş
##beden
randev
##ste
##iti
coşk
akses
santr
nün
63
olmasa
59
dürüst
kendisinin
ömr
##tiğim
##slan
icin
##bilmektedir
nükleer
başsa
##cın
ömür
duygusal
bölün
kullanıyor
canlandır
japon
cor
nu
topu
tey
alanlarda
yemeği
önder
##ington
anlatıyor
sürecinde
kazana
reform
bla
##ben
aptal
##und
kek
dairesi
mana
ürünlerin
##ladım
ci
##maktır
katıldığı
girer
mümkündür
çekmek
programları
olmanın
mol
bahçe
caz
##giz
saatlerinde
miyim
amerikalı
bulunduğunu
ven
kg
terc
kilometre
##ris
sürüyor
prim
peyn
dedik
600
çekir
meyv
kk
sektörü
plak
diyorum
trabzonspor
sizden
öf
çekiyor
org
etmeyi
##medim
japonya
##usuz
oluşturan
yüce
engelli
değişikliği
işyer
##uyla
vizyon
i̇şlem
##örü
ış
aydınlat
##elal
yuvar
##mini
üretilen
silin
toplantıda
i̇le
tabak
anlar
yağı
efend
üyeler
devir
sözler
geçiyor
kullanabil
taşıyor
bileti
fit
biliyorsun
sorular
99
kalmak
imz
eyalet
alıcı
dosy
tekst
##ala
uzan
düşündüğ
len
bizden
ülkelerin
satışa
hiss
çöp
işletme
sabır
##eyerek
gor
##lamaları
##larınıza
##sis
şimdiye
satılık
boru
edilerek
ülkemizin
##çek
##emem
olağanüstü
##ştım
düzgün
dondur
##eğine
şeref
ulaşı
##idi
şö
takımın
gönüllü
##mus
döner
olmaları
##lığından
paylaştı
i̇mam
katil
tüp
sinyal
dünyadaki
fırsatı
tavsiy
olabilecek
##likleri
arasına
soruları
gayrim
yargılan
adıyla
##kim
bizlere
tıbbi
kartal
dönemin
köprü
memnuniyet
##ök
gam
inceleme
tedar
tıkan
##medik
##lerdeki
aksi
sınavı
versiyon
özelleştir
süreli
sakın
döndü
dışına
##lon
##yaspor
##masi
hamil
seksi
i̇lg
##ci̇
##80
paral
tutum
bizde
akar
gidece
i̇r
oradan
skor
sizinle
çocuklara
arasından
##tez
##ciz
##ört
ulaşmak
kaybetti
##tikten
istikrar
enstitüsü
ayakta
listesi
defter
sy
yorgun
atak
okula
örneği
##’tan
##ğım
payı
gerekirse
enfeksiyon
patron
söylemiş
kole
digit
vası
bok
95
hotel
tavuk
çatı
mağaz
ves
inti
sanık
##malarını
karşılıklı
gördüğü
##yaz
şifr
##aca
robot
##oper
durumun
açıkça
oyuncak
karbon
gezi
konular
alana
bozul
##ersen
##caya
vergisi
bakır
olgun
tüketim
protesto
başladım
aracın
koyu
havalimanı
apart
rengi
kontrolü
miktarı
olimp
olmuştu
##nav
nar
66
85
verebilir
##gül
stratejik
sandal
hepsini
##rib
kullanıla
char
by
canım
edeceğiz
bölgeye
##ai
şekli
##riyet
gram
##şen
yemin
hakkını
ırk
gelerek
kurmak
##otik
##ee
ekipman
kullanılabilir
dekorasyon
teşkilat
i̇stanbul’da
##ebiliyor
kuvvetleri
olmuyor
rabb
marmara
inanıyor
nı
##led
sayısının
mekaniz
cumhurbaşkanlığı
tedarik
##gn
stok
ettikleri
##emizde
kurtuluş
bakımı
##rip
gösteri
yağış
adli
hocam
tescil
asit
1999
seçenekleri
hek
bebeğ
çiğ
seyret
##gi̇
yayımlanan
hur
yaralı
üzgün
##ýl
bilmek
beslen
hele
yerleri
kutlu
gezeg
faydalan
masaj
başkanlık
##lup
bekleyen
zeki
firmalar
aksesuar
keyf
i̇lişk
doku
edici
dağıtım
kaşı
sn
##usunun
sebeple
##ým
getirdiği
projenin
ras
##ende
koyun
67
lüks
saçma
##ildiğini
##isindeki
görüyoruz
bulma
yakıt
##zersiz
şartları
sıradan
estetik
satışı
ısrar
##etici
açan
##yoruz
##ydi
dokuz
şara
konuyla
yapıyoruz
yürürlüğe
bölgesel
##ami
hareketi
gelişen
şair
##’li
zamanla
taze
##landırma
yolunu
icra
olabilirsiniz
##dv
yapmanız
redde
ürünün
olduğunun
yazılmış
##meliyiz
idari
ikram
sembol
egzersiz
duyarlı
laboratu
oranda
işini
##iliğini
bakanlar
##ates
çıkması
paralel
yılına
##haf
sizlerle
pahalı
trump
öğrencilere
dostum
mc
##stagram
kaydeden
##hisar
yaşı
hel
müş
karab
kavga
kula
şok
çıkma
yazıyor
kayıtlı
air
bıraktı
##laştık
nato
öykü
##unç
dolara
piyasaya
tarafı
##mamı
oğl
çukur
göstermektedir
aldık
ray
delil
sahte
##varı
##balaj
##gari
trilyon
katılımcı
hastane
abi
##çın
rady
lek
##mıştım
sec
makale
burun
görevli
diyal
aran
holding
##akk
şubesi
##ang
baştan
pom
denir
katkıda
baraj
##ât
direktörü
vatandaşlar
##enizi
burs
müzesi
araçları
altyapı
görevini
iba
görünce
olsaydı
gelmiştir
ölen
izleyi
kıyı
dünyası
kapsamlı
mühendisliği
şimdiden
##sının
##leyip
parayı
ikna
melek
çav
##larsa
komik
##th
müzaker
##unus
dünyayı
çiko
bi̇r
yetişkin
sağlanması
zincir
brez
bran
ambalaj
##manda
##aç
genişlet
elinden
dörd
öğrenildi
oluşur
herkesi
##’nden
tebrik
değişken
almıştır
duran
ikisi
lif
şeyden
çıktığı
yoksul
çevres
feth
ikin
zamandır
ortadoğu
eline
1000
##soy
##imet
hani
ayrıntılı
veriler
itibarı
imf
i̇nsanlar
allah’ın
riv
mutfa
i̇mparator
hattı
çama
utan
başladığı
vefat
eşlik
sınırları
görülür
oluşum
hazırlan
i̇sa
geleceği
62
saatleri
sistemin
profil
##tra
##ight
##ecekler
##wor
ermeni
##oter
dom
##duktan
arkadaşları
sunduğu
görmüş
hor
##raç
yıkama
dışındaki
şirketleri
bizzat
##espor
konuya
##enkul
ehl
glo
alırken
##malısınız
rahatlıkla
kadını
muhtar
##halde
##utma
sonuçta
##sün
kedi
öv
yapılmaktadır
kalabalık
mevzuat
kongre
kaybı
öğrenme
danışmanlık
iman
deplas
gelmektedir
tamamlan
ülkeye
##mec
boşan
##bistan
yazan
kazanmak
taahh
kaybeden
##ive
##urk
teknolojisi
kader
manevi
tanık
devreye
çalışmalarına
doğur
plaj
çamaş
brezilya
kaça
gerçeği
açıldı
uyarınca
yapacağı
başbakanı
kendime
kurş
kaldığı
keç
plana
##ılmaya
72
denem
metro
##ecik
##çılık
altındaki
##elikle
82
fed
geldik
##manıza
##ese
karşımıza
olayın
##ülmüş
##ılmak
micros
hâl
kullanıcılar
gazeteci
madal
i̇slâm
doğalgaz
##lit
kıyas
mos
sermay
restoran
##ersiniz
karşılığında
anlamlı
leh
hukuki
çim
başkenti
##30
##liğiyle
aylarında
gösterdiği
kendileri
afgan
##imizle
devre
##mekle
##eyn
##mesin
##ula
sesli
arıza
kalitesi
dü
çanta
horm
zihin
tüketici
esen
herhalde
mp3
##tip
krem
orijinal
yaptığım
wash
##esin
fikr
değişen
akra
tank
##bert
##tap
eşliğinde
##madığını
anlata
vurguladı
haftalık
##we
yöntemleri
türkiye’ye
##melisiniz
çetin
kktc
pozit
maçın
korunması
asgari
onlardan
çalıştık
tekstil
varmış
dediği
etkileri
parlamen
koruyucu
tarafında
taksit
##uf
##arlar
evrak
tarzı
yakında
resimleri
kısmını
balkan
##umuzun
iv
karn
kullanabilirsiniz
##ich
kaba
şartı
yansıt
mater
ceh
istasyon
tablet
başından
akım
denilen
yerleşim
işlemler
amir
kütüphan
gerçekleşti
##emiyor
##emiyorum
gecesi
yükümlül
göreve
bölgenin
manisa
nesn
bag
düşündüm
gayrimenkul
makina
vermesi
61
maddesinin
ortasında
dersi
çapında
köken
##eleriyle
zamana
sitesinde
herşey
sürük
uygulamaya
yalı
dilerim
sığın
kurumlar
gününde
zararlı
etken
sonradan
obj
teknolojik
fıkr
gereksin
verin
alanına
120
sigort
idare
##elli
##layabilirsiniz
##daroğlu
olmakla
bölümde
##efa
kitle
yardımı
##ml
gidiş
yazdığı
göze
organiz
liman
ked
68
lay
inanılmaz
türkmen
doğrusu
##ştan
insana
##ete
uyu
dördüncü
dolandır
##dıkça
işık
medyum
ziraat
ilişkileri
##umuzu
hitap
doy
geçirmek
yir
kızın
##tıkları
##çilik
istemez
kaynağ
tazminat
testi
##dağı
kırk
yoluna
##ny
iyileş
mısın
oynanan
muy
##urfa
suyun
hayatına
alımı
##linik
bağlan
özer
referan
mühendislik
sünnet
bilgilere
##burg
washington
yüzü
gran
fikri
bulaş
ülkelerde
dizisi
##larý
kadık
samsung
arda
sekreter
daima
staj
konuşmak
hamur
şampiyonası
desteğ
hikmet
yazarı
kov
kızlar
##likler
sayg
kurucu
konulu
hikây
geldim
şeytan
69
##birliği
uzaktan
gücünü
kopya
sunmaktadır
##aydı
biber
gergin
minik
sizde
##io
aldığını
nişan
##gul
hazret
hdp
şarj
##baycan
ilçesi
kurtu
koku
sunucu
##vil
keşfet
vas
wal
otop
muhar
protein
kısaca
bardak
##’la
yerlere
##pg
cemaat
arnav
isteyenler
yüklen
filmleri
##ood
kimseye
mide
yavuz
kardeşim
merkezine
bası
sığ
##ülecek
bayra
##emizin
çıkardı
onlarla
ödey
konuları
bedeli
dinamik
dedek
asan
vurgulayan
haksız
tamamı
##ice
ifadelerini
sözleşmesi
dudak
konaklama
sunmak
chat
müte
##rad
unutmayın
gre
evlat
hacı
##balı
##vin
valisi
best
##ýnda
atmos
##âm
##amıyorum
microsoft
##esir
halkının
ms
arnavut
##çısı
küf
tarihine
##ýný
cumhurbaşkan
topluluk
##orit
yıldan
cey
çeyrek
izlemek
ukray
dk
##lamanın
fı
sürdü
dert
ağırlık
cadde
##ılacak
##layı
alg
yang
##şek
##ço
##rul
uygulamalar
##esince
girmek
bağlam
çekin
sistemine
istemiyor
çalıştığı
buton
##lemiş
kast
şof
ermen
suudi
olmasının
sep
kadıköy
başkent
beton
##bas
olayları
youtu
azerbaycan
komutan
verilmiş
bankacılık
teşkil
yetki
bilişim
kullanılarak
düzenlenecek
##dular
olmazsa
etrafında
meb
76
##lıyoruz
karşılığı
geor
kemer
avustur
teklifi
araştırmalar
##bası
gerekçesiyle
pozitif
lı
organik
harcama
kur’an
herş
seminer
tohum
katk
edir
##inizden
müsabak
amaçla
amatör
mecbur
omuz
iletişime
##ğunu
ilah
77
nakliye
ret
talimat
özgün
virüs
muz
##ılığı
karşılaştı
kitabın
oynayan
kaşığı
semt
kişilere
vicdan
max
aktivit
i̇nan
projeleri
erdem
saatte
ajansı
mum
##laç
cümle
şansı
değerleri
i̇lgili
oluştu
getiriyor
hürriyet
##luğunu
81
oğuz
tuvalet
yönetici
kadir
##ac
çel
boyun
materyal
planlama
kep
##name
yapılandır
##indan
jack
yazıcı
caf
lastik
niteliğ
kablo
instagram
efendi
yürütülen
kosova
istatistik
getirir
gelmez
medeniyet
ordusu
pres
irti
keşke
##dışı
eli
istenen
toptan
terim
hesabı
##türü
##portaj
patlama
rezervasyon
i̇ndir
sıcaklık
faaliyetleri
yarısı
tuta
##cal
perde
nihayet
gözler
##iğe
##nn
demokrat
bulgaristan
karşısına
tesisat
cezaev
dükkan
##dere
emr
kardeşi
rep
adil
eng
##duğunda
tutmak
##unuza
##aa
##ss
##cell
arı
çıkmak
##emli
##hiş
olanı
ekr
##ğeri
alakalı
kitapları
##use
miras
##lamıyor
deneme
“i̇
##ümde
savcı
röportaj
referans
i̇lçesi
bilimleri
##luğa
tüf
##fez
korkut
##şak
anlatı
##irt
imalat
krizi
yaşamını
malzemeler
yavru
casino
birimi
ayrım
böy
esnek
borc
olimpiyat
dönemlerde
yaralandı
dor
##raz
buğ
senaryo
vize
sad
alem
hayatında
ailenin
randevu
i̇çişleri
mahkum
ibadet
##tara
çavuş
tavır
buldum
ihtiyacım
büyüt
merdiven
eklem
fın
harita
##’ten
##lüğünü
ismini
tutuklu
ederler
devamlı
albay
kra
yetkilileri
sis
tuhaf
general
heykel
##işe
işten
hikaye
konusundaki
##masız
anlamak
cehenn
cana
##önü
köylü
başlık
topla
göv
hastaneye
yukarıdaki
vatanda
korkunç
trak
araçlar
geçmişte
stil
noktasında
görünen
çıkarmak
we
denen
##abilmek
talebi
dinlen
##âlâ
800
keskin
kanada
##yeri
##li̇k
imar
kılav
tebliğ
disk
ikili
##dığının
muhabir
ate
adamları
bırakın
ekst
ihlal
loj
kaptan
sinan
vatandaşların
odaları
##ned
kerim
girecek
direkt
politikası
kaplama
##tıktan
aklım
##ünce
di̇
##api
yazma
kültürü
up
düzel
başsav
izni
verilmiştir
muğla
muam
milyonlarca
sistemini
kurulum
seçilen
müthiş
##larımızda
zul
inanıyorum
##sp
şirketler
tecav
##ilirken
özellikler
teknolojileri
ölçüm
açıklandı
##unuzun
yapılmıştır
olacağız
sırbistan
kritik
##yalı
##’ü
tüy
şanlıurfa
bitti
##mon
##16
kısmında
değişiklikler
tavan
fah
##gk
serisi
kılıçdaroğlu
teki
##gut
geçmek
çikolata
uf
bolu
##melerine
sizlerin
global
##luğun
sendika
tün
fre
elaz
halil
platformu
limit
peynir
oluşturmak
ülkeleri
santral
koşulları
fela
hic
sınıfı
çalışıyoruz
bastır
istey
##ã¼
maksim
lat
işletim
##evit
önemlisi
tc
etmiyor
uydur
##ung
böyl
sergi
sahipleri
parkı
okudu
dışarıda
gib
düşt
##illi
sözlerine
eşsiz
kaybed
düzenlendi
##iminde
iklim
##dığımı
üzeri
cerrahi
uzaklaştır
reç
ithalat
koya
personeli
73
şahit
yetkililer
tamamladı
yapılabilir
söyledim
verdik
##gim
74
felaket
karın
bakıyor
tecavüz
balıkesir
aşamasında
riski
yürüm
##yurt
##ola
##pp
##top
milletler
denize
sic
çalışıyorum
izleyen
selim
kazı
başa
müziği
##üsünü
yıllarında
##fan
göçmen
girip
öztürk
oturum
giderken
##lerinize
çılgın
##ure
alınmış
led
kapital
gülüm
yapay
##gon
karışık
satır
##tro
şüpheli
taahhüt
##ilerinde
kuruluşları
##abiliyor
kullanılmaktadır
olurken
##ilmelidir
##çilerin
##iret
i̇sviç
çözümü
başlamıştır
elini
ihraç
salih
##ımdan
milletin
tarihte
olabileceğini
pant
uyandır
zem
youtube
##larımızla
##ja
##xy
i̇sveç
evli
oyuncusu
vuruş
aralı
ilanı
##tiğiniz
eman
alp
vekil
afyon
sitemizde
##layabilir
##has
mesajı
sef
##amış
hizmete
farklılık
##19
sürüm
##izmin
karmaşık
aleyh
gebelik
verdiğini
çıkarak
sara
##’lik
sektörünün
domat
sertifik
ötürü
maddeler
galiba
kitaplar
kurulmuş
öğrenim
sekreteri
kurşun
veli
örgü
büro
sömür
##’ndan
toplamda
görülüyor
birinde
asansör
##danın
hatay
şarap
##onsor
flor
##leniyor
##ise
##übe
kasab
attığı
istiyorsun
##ğinde
gala
buluştur
belirgin
limon
78
ediyorlar
duyduğu
bilimler
yeryüz
gev
almayı
ilgilendir
olmasın
ilerle
had
oyuncular
anlatır
abon
komutanı
##utin
you
sag
cevabı
türkç
hakaret
mektu
şap
oynadığı
kategorisinde
##çılar
##ena
aynen
cd
abdül
tabir
arabistan
katılma
1998
yazdı
derv
eren
oyuna
referandum
şebek
##lendirme
edirne
öyley
fuarı
yatırımcı
evrensel
##uta
müsteş
görülmektedir
bekliyoruz
sponsor
karan
getirilen
duyuru
atöly
##çası
işleme
##ğımız
yazın
çamaşır
soya
itibarıyla
somut
muhal
frag
anlayışı
gitmiş
beyler
pasta
onarım
alanlarında
hırsız
edecektir
özlem
bölgedeki
kurumları
federasyon
şehirde
elbise
nöbet
emeklilik
girmiş
ilgisi
desen
vitamin
bankalar
digiturk
##tiğinde
##cilerin
##barat
sunar
eks
sürdürülebilir
ecevit
merkezleri
isa
gelebilir
beklem
performansı
gun
##çileri
körfez
ukrayna
boşluk
##amaya
şiddetli
istemiş
filmde
böylelikle
öldürül
real
görünüş
aldığım
tatmin
intik
sisteme
veda
kasa
çevresinde
yapıyorum
bozukluk
##mece
bush
yapacağız
##gur
şeyh
fonu
sahipliği
oyunda
1990
atış
çoğunlukla
noktaya
samimi
cezalandır
dub
arslan
##lanmaya
nadir
diğeri
mekân
yağlı
##ica
##tuğu
topar
muhasebe
pc
##düs
eseri
yürek
mahall
##’nün
##bine
bekleme
maksimum
kuruluşu
yoldan
yararlı
reddet
ilçesine
##larımızdan
i̇nce
hızlandır
belç
temizliği
##eyebilirsiniz
##ker
##40
##i̇d
masum
ric
jam
seo
tırman
çıktığ
piyan
wh
bizleri
##ty
##wer
avustral
##ınıyor
prog
akla
davası
kapısı
##dön
endeksi
fırın
beklet
itiraf
##uştum
ortamı
işken
olanların
##itan
hastanın
rot
hedefi
gereğ
ağırlıklı
patates
##ester
elem
trav
inşallah
rey
arayış
otomotiv
peşinde
kadına
##tılı
maked
ayrılan
##liğinden
satıcı
uefa
öğrencisi
gönderilen
doları
anlatım
türkler
fig
sebze
şüphesiz
zeytinya
resm
##ýk
evvel
isyan
elazığ
klinik
meydanı
##’ni
gösterilen
kesi
lezzetli
tutk
yardımıyla
artı
verileri
değişimi
##wa
trend
yarışması
alar
tarafta
görevlisi
eti
isimler
komün
##ld
resmen
bürok
ittifak
erkeklerin
kaynaklanan
hang
başrol
##müştü
gelmek
sex
mete
okumak
kocaman
ertesi
okulda
meşhur
depolama
logo
sov
##press
varsay
##ladık
##miyoruz
sektörün
babasının
tüt
antrenman
okuyan
tokat
hazırlanmış
nci
##laşması
belgeler
gerçekleştirildi
##ug
evr
ruhsat
yükselen
alex
programına
oh
cüz
ısıt
atıyor
laboratuvar
gelecekte
yarattığı
hırvat
havay
açmak
ihtiyacımız
sayfası
aldığımız
##iyesi
i̇stik
190
kaynaklar
##ith
karaman
ısın
patent
rejim
geçerek
##lanırken
##ney
##akar
##kusuz
yapmaktadır
geliştirmek
derviş
##nda
##ebiliriz
sağlamaktadır
##mede
sıkış
##gazi
sayılır
manzara
##umuza
##60
yapıldığını
yaptığınız
ste
##ebilen
##kas
gibidir
müj
intihar
zer
dersin
başara
##ısındaki
##ob
afganistan
firmaların
oluşturulan
##esyon
uygulanması
turnuv
büyüsü
neticesinde
##göl
nolu
kullanmaya
şem
##ish
##iledi
verilmektedir
hormon
oksi
böcek
##lini
izleme
hayatının
700
nitekim
dergi
##uyordu
bilinc
mahmut
vekili
muayene
##iyeli
seviyede
oluşturduğu
##emize
ingil
##omet
##tas
##vanı
elektrikli
kampany
millî
avusturya
toplama
yükle
belirlendi
programın
maddenin
çalışmaların
anlamında
pasap
çalışırken
ibaret
dönen
inter
gittim
kendinize
lazer
##eceksin
##sından
başlığı
##ayn
mevki
atmosfer
cihazı
seçeneği
##17
basınç
##hael
i̇spanyol
adnan
rit
79
zorla
##iver
girdiği
bırakıp
verip
##iğin
bulacak
##tılar
##uncu
önlemek
##eğinde
yolun
##kul
ndeki
##ülasyon
trt
içeriği
edenler
odaklı
##15
nakit
camii
töreni
sözlü
##ilecektir
zamanlı
grubun
planda
boyutu
sözcüsü
kızım
yükseldi
##berg
##azi
##tiy
cinsiyet
##lamalar
poli
sorunsuz
##yolu
isimleri
sergilen
tehlike
iktid
kuralları
düşer
olmasından
sektörde
rock
##brek
98
war
i̇şletme
çığ
i̇çer
oluşturul
vat
suya
##vers
lt
##yaman
çadır
##tikleri
mükelle
coğrafya
parçaları
tarihten
hy
yahudi
vazgeçilmez
konse
hayli
geçirdi
yükleme
##alisyon
##cik
za
ülkeyi
88
87
dediler
layık
sorunların
üskü
etmey
zorundadır
burcu
##ebileceği
alay
üyelerinin
sınırsız
bilgilerin
kaydedildi
##ğim
müdürlük
hop
##dinde
engin
paylaşmak
etkileş
pik
oturma
toplanan
neş
##ıplak
süz
ergen
mült
döndür
katılmak
ram
varlığı
##uki
başak
epey
cis
kendimizi
baþ
##jik
adaylar
koalisyon
aldıkları
kurdu
vermeden
down
davr
aklıma
içerir
sindir
üncü
sade
97
##ux
##abı
çant
gelişimi
söylediği
##kes
anım
getirildi
böbrek
1980
yasası
##gelen
##poz
ihmal
şuan
sözcük
pişman
##şkın
##peryal
dönemine
##ilmek
öğrencinin
katal
show
yücel
sertifika
şirketlerin
irade
si̇
##dola
gri
diliyorum
astr
tahsil
esir
frank
etkiler
##cağımız
öğretmenler
rica
pal
zah
iyilik
tarihe
laik
cap
oruç
örnekleri
misyon
siteniz
fındık
arazi
fakir
hakikat
##olik
piyasada
hücre
rüyada
albümü
gereksiz
##eydi
duyurdu
hızı
##laf
deneyimli
##oli
kolaylıkla
olas
yerinden
durak
okuya
birleşmiş
belgeleri
tarihinin
##olon
motos
sandık
baya
askerlik
aldığınız
söylem
sevdiğim
ekstra
satan
olmam
##layınız
kararını
yaratan
turkcell
atılan
i̇lan
##tiniz
onlarca
firmanın
ettiğimiz
ortamında
şam
cengiz
koruy
programında
birbirlerine
1997
##eğinin
##meme
hissettir
##ılmıştı
küp
yirmi
kurgu
##ûl
üreten
sende
çir
medyada
fav
okuyucu
kombi
##che
sağladı
sw
##kova
değerler
edildiğini
görmez
fiyatlar
mask
##stri
kurulması
cidd
i̇sviçre
çözümler
gene
sürdürüyor
##uştuk
açtığı
hastanede
paul
domates
##tv
hamile
belgesel
modül
işlen
##cy
vakti
yüklü
masal
aler
3d
kuvvetli
damla
tuğ
ettiğiniz
“türk
bölümünü
acel
müf
##alik
ispat
turu
ju
meme
hayvancılık
sağlama
##lans
##emeyecek
çür
şimdilik
##larımın
temsilcileri
düşünen
burda
##eyici
cenaze
kars
hareketli
filmler
##bbet
##uyorlar
kombin
##pınar
##duklarını
##anılan
içerisine
hoc
fatur
##lova
##my
84
turan
dayana
bakmak
konsol
oranları
değilse
sürüc
alabil
partinin
solun
##atın
yazısı
markası
##inizle
binası
kararlar
##kâr
şerif
etmeniz
ero
lor
geçecek
michael
dedektif
yerin
i̇laç
beraberinde
##adi
titiz
##̇n
tutun
uzmanlar
ty
konf
adamlar
yapıştır
tesisleri
lef
köşe
meşru
##18
format
##kent
açılması
yılların
ekle
yaşandı
piyasası
genetik
şanslı
##lana
liraya
haftanın
berlin
açar
kdv
##ýz
cah
kullanır
mağlup
beyn
off
üretici
geçiren
kullanıcıların
seviş
jür
kurtarma
analizi
“bir
##sm
görmeye
rehberi
duş
müraca
sitede
metr
budur
emperyal
kasaba
yazdır
tetik
durumuna
şartlar
rev
helik
güreş
##dor
##bit
##eceğimi
dern
83
kömür
##ses
dünyasında
mezunu
m2
yapılarak
tasarı
##dia
ayrıldı
##ect
wat
kenti
kanalı
##ilde
evleri
boşa
##zir
arkadaşlık
kongresi
çatış
##sar
genelkur
sözlerini
geleceğini
standar
ekonomisi
ilişkisi
kaynaklı
kaygı
yapış
isteği
##lanıp
çeşitleri
##luğunda
tarafa
##ex
ailesinin
oturan
##ted
kandır
oluşturur
ajan
endüstriyel
görüyorum
haric
operasyonu
meselesi
##cıları
kimya
dog
tarihlerinde
nüfusu
##göz
elma
diyanet
##mik
hırist
yoz
sayısını
kudüs
buzdola
##bür
dayanışma
dersleri
ceviz
düşünül
##operatif
ilerleyen
tezgah
birde
sence
dâh
bebeğin
gençlerin
üzgünüm
pul
operatör
gi̇
##tına
##ife
gözü
arma
komitesi
##ilmeye
##ğine
konunun
david
ht
helikop
kalması
avustralya
entegre
kade
mardin
86
mantar
gözya
süresince
yalova
##âl
uygulanır
hatip
arke
muhabbet
##ði
muhafaza
hafız
cemal
kızar
iyisi
##ileriyle
öncelikli
sırf
trib
92
seçmen
ebev
eserleri
dikkati
kaşık
günümüze
##bilirsin
super
ağab
##azz
##attin
##bilirler
istenilen
güneydoğu
##ju
erdi
sahada
yunus
taşınmaz
görünür
unutma
balkon
##by
96
olmasıdır
genelkurmay
##ting
1995
oğul
moskova
tecrübeli
##kın
hâkim
rahatsızlık
tadını
ilham
##mana
üzün
temizleme
anlaşması
##elif
kazak
##dikal
kalmadı
teminat
şiirleri
olacağım
islam
##lenin
sorumluluğ
durumlar
bilgilerini
toplantıya
fotoğrafları
##suna
yöneticisi
bam
sih
çözün
yıllarca
tanıma
##lanacaktır
##ayın
seçimleri
güncelleme
yaptıklarını
kurma
sorgulama
mükellef
saptan
xx
insanlık
hazırladığı
##ulacak
açıklamalarda
öfk
başlıca
sırp
89
dünyasının
imkansız
çoktan
##mazlık
heyeti
##bc
dönüm
öyleyse
maddesinde
aşama
etkinlikleri
işletmeler
dönük
katlı
dostu
veriyorum
büyüklüğ
sıklıkla
kelimeler
yapmam
savaşın
##nın
##ily
##tum
##tiha
nitelikli
ziyade
bakıldığında
ikamet
paketi
hepimizin
##lilerin
şoför
bilmem
##ald
savaşa
birileri
birlikt
ulaşan
##ülüğ
##ladığını
mav
yorumlar
bekliyorum
##iştir
katıla
##ılırken
parsel
sezonu
##deler
##ayıp
tarayı
gereklidir
gerçekleştirilecek
meşgul
hemde
üzül
##allı
##likte
görüldü
degil
##izde
sadık
görebilirsiniz
dönüp
deneyimi
##rü
ihtiyacınız
##eli̇
##iliğin
buhar
dahilinde
etmekte
blu
arsa
##usun
edemez
iştir
ünit
etmişti
zeyn
gas
çalışacak
kps
kablos
##df
##i̇h
demirel
başarılar
ebu
ettiğim
angel
##eleme
derhal
aman
işit
##tive
zamanın
ili
##müşt
güçleri
hatun
olgu
##meliyim
##rid
gökyüz
tahta
seviyor
koydu
macar
konularında
oynamak
menü
partner
what
radikal
cari
##oid
duydum
profesör
yöneticileri
bulgu
fena
yaşamı
motosiklet
##cunun
kavg
etnik
i̇mar
##tic
##laşmış
##hid
##taç
tet
geleni
##hu
180
##ılmasının
##ularak
##ason
konuşmada
##yat
##iyetini
oz
mesele
küm
reha
serdar
herif
kampanyası
##izmi
şükür
katliam
tarihsel
arttı
taşıt
##larınızda
motoru
izlem
döş
anıt
##likten
pasaport
ağrısı
artışı
irtibat
sözcü
gördüğüm
##emizi
##ifor
##vey
yükseköğretim
##ys
##gren
etkinliği
görevleri
sigortalı
sevdik
i̇daresi
gerektiren
okyan
ekledi
##ildiğinde
hukuku
##biler
rize
ecza
emanet
kişiden
şan
gelişmeleri
rız
##feri
olmanız
başarıyla
çu
bot
kapsamda
düzenle
yaşamış
getirerek
çıplak
##umda
olanları
mimari
##erler
##âyet
maliyeti
villa
buluyor
sürdüren
ayşe
george
sorumlusu
ağı
rolü
vücud
ihtimali
sigortası
cel
##itler
ardı
##emedi
füz
belçika
##düğünde
gökhan
koordinatör
##istler
atmak
sevdiği
##dro
eğitime
##gb
uzanan
yazmak
veriyoruz
##ebilmesi
tüken
yüzüne
black
##unt
merkezli
##ilmesinin
türkü
katılacak
aza
baykal
ingiliz
vermez
etmeden
##umuzda
bük
devletleri
aşamada
aslı
##oni
94
kooperatif
köyün
i̇hracat
salonunda
ithal
atom
içki
##ano
imam
##’le
##ganda
sağladığı
davut
viz
##vo
##åÿ
musa
türkiye’deki
cüml
ettiklerini
tespiti
enerjisi
haftası
dolap
saatlik
gördüğünüz
1996
batman
düzeyinde
haklarını
şehirler
olabileceği
basa
ambu
dostluk
maddeleri
komutanlığı
yep
sayfada
kâr
opsiyon
çırp
“ben
asa
çirkin
önemini
belirlenmesi
macera
##tre
oturup
öyk
yüzyılda
içme
##hai
artıyor
yıldön
##vert
ayın
kendisinden
kentinde
i̇hale
müracaat
yıldızı
tahsis
frek
verdiğimiz
unvan
açığa
etkileyen
geçirdiği
reak
cat
geçtiği
aradan
sürecek
dâhil
değiliz
ihtiyaçlarını
görüşt
tıklayın
##amda
##kap
yaptırım
##diğimde
varlığını
cesur
dediğimiz
oynan
çalışmalarının
##anıp
hain
muhtemel
yaşamaya
hij
93
gb
tırnak
gerçekleştirdi
gönl
içecek
açıklamaya
##zen
kurucusu
gelmiyor
kis
yolculuğ
üste
kova
sunuyoruz
başını
dır
##larin
görüldüğü
sevilen
başardı
muhalif
neg
kurduğu
polonya
atar
dışarıdan
bölgelerde
##esun
##ann
işveren
yla
fal
fırat
yuvarlak
##tığımız
##metik
başladık
yapılmasına
konul
çekilen
bilme
artması
##faf
konuşuyor
çevrim
havada
gittiği
güzer
boyutlu
ilanları
gro
buğday
vücudun
olu
düşünceler
düşünmek
hikayesi
kentin
özdemir
##cere
yazılan
bilgilendirme
puanı
tüzel
edeceğini
olursunuz
rivayet
##sus
düzeni
paylaşı
meg
boşal
durumunu
dövüş
los
##menize
yargıtay
##lenerek
adında
##emektedir
yüzme
bildirim
##general
başkanımız
oynat
i̇nsanların
öncü
yorumları
##lanmasına
yayınlandı
times
ölümü
çalışanları
##ðý
hükümleri
hazırlanıyor
##diğinizi
fren
istedikleri
akademisyen
cr
pembe
erdoğan’ın
anlatmak
ss
turgut
kentsel
verdikleri
kolları
editör
900
pır
##itik
stü
##tiş
##osunu
burak
“m
aktör
server
##cinin
kupa
https
yükseliş
bitkisel
##ole
##ayacak
sevinç
kalkış
##ational
şampiyonlar
i̇zle
karada
izliyor
pre
hayati
alkış
miz
##lanmak
hangisi
nic
vitamini
ster
##inyum
reg
##lanmasını
pantolon
değiştirmek
çalışanların
teşkilatı
yükümlülük
yurtdışı
geçtik
##sunun
olayların
##aydın
gönderdi
gerilim
sıç
zeka
##irli
rıza
elden
##tının
öğretmenleri
rüy
arapça
problemi
bron
getirilmesi
fazlasını
endişe
ikiye
##lie
##çü
merh
kırsal
mimarlık
##larıdır
##load
seviyesi
nil
okum
##mazlar
##olojisi
kılın
kurtarı
##ling
geliştirilen
sezer
kime
bağlantısı
kanseri
##pet
seyr
##uklu
##cesi
##için
adımlar
yatağ
sonbahar
yüzünü
##eliğine
raporda
dönüyor
##sizin
##’’
çoğunluğu
71
endüstri
karşıy
kadınlara
karara
ebeveyn
mineral
geleceğe
miyiz
yır
##mayacaktır
senet
amas
tekir
kullanılacak
içten
1994
##ach
depresyon
parası
programa
##ble
tema
kurab
şüphel
ihtiyaçları
##ıyordu
işine
adıyaman
izmir
##dp
romanya
##aklı
jen
parma
bölgeler
sark
bulunu
##ıyorlar
##föy
birincisi
detayları
##umun
erol
borçlu
ayının
##emedim
kanaat
diğerleri
şirin
kpss
gündür
karşılaşma
mücadelesi
refah
siteler
##üğü
kitapta
##iriz
hayatım
kaldım
liber
fazlasıyla
yollar
diyelim
##âz
levent
etkisini
başlamak
ligde
##ebileceğini
sürecinin
akraba
parlamento
haberine
tanınan
##dk
sök
başvurusu
##kender
##mayız
##yü
##cay
yapmıştır
müd
##oks
bi̇
kararın
bilgiyi
haliyle
etek
söylüyorum
olursak
kaçınılmaz
çekerek
donat
bardağı
anlamıyla
sarf
grev
göstergesi
planlanan
edilemez
lojistik
##dyum
giresun
galaxy
yönlü
katılımıyla
makedonya
çıkarma
zır
gülen
sizce
kusursuz
oluşuyor
ortaklık
##abileceği
nitelendir
##kür
##fil
boyn
avcı
##nes
##abiliriz
değiştirme
otopark
##miştim
üzüm
##bağ
şarkıcı
almadan
##odu
tos
gidin
kadınları
şidde
ndaki
##cileri
iftar
varken
bant
söyleyerek
##wood
altından
azalı
kadarıyla
##ıra
razı
yolsuzluk
içe
çorba
alındığı
##cağından
bilinçli
zik
yönetiminin
edelim
##ımızdan
i̇çeri
mutlak
##ekte
tol
vermey
sempoz
doz
sarayı
alacağı
özelliklerini
##tınız
giriyor
##oğu
geliştirilmesi
geçmesi
##tezi
##lub
insanlarla
‘’
yanıl
tm
programda
edebilecek
direniş
adama
ülkeden
asf
istediklerini
pür
##faiye
i̇lişkin
##ılmalıdır
yapılacaktır
buda
##hk
bekley
faruk
##laştırma
i̇lhan
göt
gerçekleştirdiği
kredisi
##ongul
gölü
##ls
##ünc
otob
şeffaf
girişimi
gezegen
borcu
çeliş
fotoğrafı
abd’nin
##ladığımız
##ümüzü
##ekiz
yalçın
sınava
kına
alüm
##onguldak
seans
bırakmak
##akende
kanununun
etmesini
yaşadığımız
klip
gözleri
kaleme
##eld
kurtarmak
ley
pot
sıkıştır
##dýr
haberdar
belirtiliyor
toplumu
hastaların
##bre
edeceğim
kullanıldığı
hayvanlar
sosy
##iyenin
##lanmaz
görebil
klav
programlar
bağdat
çıkarılan
midir
ulaştırma
madalya
ışın
##baba
diyorlar
dy
##akal
buluştu
azın
##ces
##uel
aldır
##ilmişti
değilsin
dizayn
araçların
taşımacılık
atama
başlandı
belirsiz
yapacağım
##veni
yepyeni
##takım
i̇ncel
hastalığın
çıkmaya
ötesinde
##memektedir
ülkesi
##ınızdan
koşt
city
##dığınızda
##pu
tecrübe
çekme
fırtına
mul
solu
##mun
aut
kalkan
menfa
kare
tahliye
##gunu
poşet
zonguldak
konuşmasında
host
##ünüzü
deg
sesini
burn
##aspor
satılan
kazanır
bakter
vasıt
duman
##arda
başlayarak
uzaklıkta
yama
titr
kütah
kucak
i̇pek
sözde
duyulan
çen
edilecektir
dilim
sitenin
##amayan
spr
federal
çocuğa
oluşturuyor
getirecek
helikopter
portekiz
##çının
binanın
yetmez
termin
romantik
serin
diyalog
##32
tarla
sordu
bül
afet
frekans
ertelen
kin
##ğinin
mam
aydınlatma
sürdürdü
yaşamın
resul
##anızı
##coin
bilmeyen
##epe
##rd
“p
##diğinizde
dersler
çalışmalara
başbakanlık
kopar
berek
baskın
etmeleri
sırasıyla
yapılmasını
##imum
öle
kutlama
##i̇s
usb
##mışlar
##ysanız
bilinmeyen
yapalım
nice
biliyorsunuz
hüz
etkisiyle
perakende
nikah
kendinden
imparator
üni̇
oktay
girişi
yazıyı
fiil
##eğiyle
hizmetlerini
ediyordu
oranla
akşamı
filan
yoğurt
bulunmayan
çeviri
etsin
tsk
negatif
##saspor
sing
##ilme
dede
##lacağı
grupları
##graf
yapmadan
kararları
ti
kaleci
##dine
kablosuz
laci
liralık
dv
kapsayan
adası
işsiz
##üsünde
galip
pakistan
sayfasında
öğretmeni
onar
kenara
şampiyonluk
##’nı
çalıştım
kumanda
özkan
james
iii
##yn
kuşak
ihanet
ahmed
hev
out
kokusu
i̇lişkiler
ödülleri
duya
hissediyorum
##diğinin
##maraş
başlatılan
sınırı
sebz
suçu
dolandırıcı
ileride
aydır
memuru
atma
sadak
başkanları
volkan
üyeliği
mesut
ifadesi
##irse
##ebilmektedir
koordinasyon
##uzun
verirken
keyfini
tünel
cüzdan
gruplar
uygar
bursaspor
dükk
anneler
kayak
##ew
aktarı
olduğumuzu
yahu
##diğince
moral
takvim
maça
metrekare
artarak
milletvekilleri
hiper
yüzyılın
düşünmüyor
arayıp
idam
fiş
benzin
etap
##yd
##bolu
zihn
düşüyor
pist
noktaları
iktis
emeği
pin
##eceğin
boşalt
taksi
değerlendirilmesi
cir
girerek
deme
yolla
##gücü
asp
anılan
anma
##tisiz
sevimli
##tp
sezonunda
##amızı
##lerimizde
olabiliyor
##banın
nazar
##laşan
ölür
##25
miy
keşfed
seviyesine
madrid
##lerse
##ani
tutarı
deh
artırmak
beklemek
bosna
biş
yapıya
yaşadı
##abilen
fos
düşünüyoruz
birtakım
içerisindeki
“ç
alüminyum
gereğince
kavuştur
topluma
işada
ortağı
##dişah
büyüyen
teknikleri
jim
##tes
kaldırılması
##bs
##ıklığı
aracılığı
kuruş
strateji
subay
kimliği
vermiştir
ürünlerini
##bor
akciğer
alanya
##dükten
haftasında
i̇çinde
dilekç
direnç
müze
yapılı
sürecini
yaşına
mısınız
açıl
1992
tesa
alışkanlık
##ski
##24
kendim
başlattı
##itasyon
tadı
oluşmaktadır
seslendir
işi̇d
bart
##14
yönünden
etkileyici
##arka
pınar
##lığımız
##kop
edilmelidir
##memi
##hen
##mayıp
düşünün
aileler
sorumluluğu
kısmen
sevda
gecenin
##sad
mantıklı
##matı
ödev
aittir
devamını
kalitesini
sezonun
bors
yürüttü
makal
oral
##asın
##ebir
çocukluk
kahramanmaraş
kadrosu
tarihin
vesile
yenilikçi
##buki
aki
çub
bağırsak
okulun
adem
##mad
mıdır
polisin
kalmaz
figür
şampiyonu
işley
filtr
hrist
bira
portföy
fotoğraflar
kökenli
sıkça
soğan
salata
kurtara
##i̇tesi̇
medy
sorusuna
çıkmaz
adresine
şab
lah
ertuğ
açıp
yazılar
haritası
mesafe
##eciler
saban
kullanış
çalışanlar
açıklamalar
şur
gerçekleştirmek
##tiz
tayin
1993
dayanan
yazıda
mekanik
sürüş
sokakta
etkinlikler
yaratmak
tasarlanmış
vakt
felsefe
##cia
##dikçe
kategori
bizans
kapıyı
alfa
zarf
##evler
##şan
ucu
arıyorum
yönündeki
##lerimizden
muharrem
açıklanan
fidan
yahut
siteye
finansman
sağlayacaktır
arkadaşlarım
##leşen
ekme
çeker
uygulanacak
kaymakamı
##iliğinden
bağlıdır
dizinin
keşif
##şar
neye
mütte
padişah
##tığım
topluluğu
kesintisiz
terörle
hijyen
apartman
paranın
##amızın
olacaksınız
tekirdağ
tesadü
slogan
yılan
##oğlu’nun
##ışın
renkler
umur
##limi
açıklamasında
farkına
sayılan
bekir
gı
veter
fıkra
şov
söylediler
muayen
tesli
gelsin
##ülerek
divan
tersine
dökü
zanlı
aksiyon
başlamadan
ünal
miydi
seçin
değerini
insani
atarak
gerekiyordu
prensip
sensör
##sten
##abilim
olurlar
##usa
rec
çıkaran
##ografi
bör
##emeye
ptt
seçme
partiler
karaca
taşına
adlandırılan
oya
ayağa
arjan
kütahya
müsteşar
kamuoyu
uyuş
haram
hareketleri
kurtulmak
yemekleri
ilaçlar
gerçekleşecek
seviyesinde
##abilirler
adayların
rüzg
##üğünü
işlerini
##lerince
yapılacağı
bağlantılı
inanc
edinilen
yazmış
avrupalı
gölg
##losu
şekeri
##araya
üsküdar
propa
fırça
##binde
##70
herşeyi
kalıntı
eğitimin
çalışmanın
hassasiyet
sop
##cker
çekirdek
ateşli
sözünü
geçin
toprağa
yıp
asfalt
fl
##disi
gelmişti
kolon
kronik
karam
turnuva
beraberlik
namazı
lap
saygın
mevdu
bulduk
##ope
anabilim
mr
terap
deplasmanda
selçuklu
edebiyatı
##pi
huzurlu
hamilelik
tencer
düzenleyen
göstererek
yaşta
gerçi
dalg
noktasına
isminin
kullanılıyor
ustası
##liliğini
##edin
sisteminde
veriliyor
benzet
tamamla
söndür
şeklindeki
mars
davanın
tansiyon
polisi
yapacağınız
##lanmıştı
toplumda
##masıdır
yakalandı
kanlı
##lash
baktığımızda
eleştiri
ps
ibar
i̇ktis
##way
i̇nşallah
sorunlarını
arjantin
seçkin
##iliğe
sanmıyorum
##ültü
yapabilecek
solunum
polat
eyüp
i̇skender
belediyespor
erzin
##ayarak
koşu
##ceği
i̇slami
ros
mülkiyet
sicil
çözünür
dul
karaciğer
karşılamak
##liydi
istediğimiz
ilim
kazanma
parçalar
tesisi
##efen
çıktığını
umu
eksiksiz
##’s
çektir
serp
tarımsal
kılavuz
paramet
yayıncılık
kıymetli
askı
şaka
yönelt
allah’a
avm
türleri
bildiği
çı
müzakere
isabet
takı
tanıyor
kraliç
##olar
##lüğüne
noel
taht
arif
başlı
yüksekokulu
lirası
##luğunun
haberleşme
personelin
##mamızı
yurtdışında
vermiyor
tamamını
hissede
benziyor
saldırgan
hapse
sanatlar
##tük
çalın
şeylerin
yoksun
bulup
oksijen
mezh
##stem
taksim
olmadığına
gönderildi
bakarak
büyüklük
##emiştir
kötülük
aldat
gövde
ödün
şüphe
##itim
etkisiz
resimler
varan
aksaray
stadı
seti
##maktadırlar
seçimlerde
##imizdeki
yılbaşı
üni̇vers
küfür
kullanıma
ertuğrul
otuz
yelpaz
vatandaşı
om
kısacası
##tun
şak
ışığı
zeynep
kavramı
olduğun
ressam
arkasından
world
deyip
vadede
##dig
eksikliği
taşır
tapu
yiğ
istihbarat
ayhan
havaya
oyuncuları
girmesi
bunda
ze
gözle
işareti
parf
düzenlemeler
##cher
kurulmuştur
uzmanlık
teâlâ
sözlük
sayısal
vurdu
okumaya
##que
##’dir
kuruldu
##ag
uşak
antrenör
yürürlük
karayol
lacivert
jon
işlemlerini
kafkas
kararının
##parta
katar
artar
sonsuza
geçip
defalarca
bulmuş
verdiler
ankara’da
plakalı
##caktır
belirtmek
buçuk
pasif
doğumlu
##ümüzde
yurti
nerde
tarifleri
jet
uğruna
bırakma
vaka
malı
gerçekçi
hp
badem
konsept
##rum
oynuyor
vaj
dursun
cevapları
orjinal
html
##lanın
vahşi
kralı
hakkına
william
koymak
kısmına
##mayacağını
##memiştir
koltuğ
##das
odasında
lüb
##’si
niçin
ceket
bazında
##13
yapmaz
kimseyi
koyup
hıristiyan
idrar
##amıza
##xt
pazarı
katma
##dý
ziyaretçi
mahkemeye
tepe
sonuçlarını
miting
haricinde
sanı
diyabet
##ladılar
eserler
öngörülen
köyde
yaşadıkları
##ecilik
ihbar
geceleri
zihinsel
çorum
atlet
“biz
muhafaz
tabe
okudum
masaya
giyin
i̇smet
kazanım
bankaların
##malıyım
neyi
avro
söyledik
teşhis
oldular
kapasitesi
propaganda
gazeteciler
çektiği
##ciye
dna
madem
düzce
verilerine
##taydı
vermeyi
fatma
menfaat
voley
konten
ataş
erg
başladığını
sub
çocuklarının
yükümlü
one
ailesine
normalde
zamandan
tahvil
erkeğin
belirlemek
denli
gözlerini
özcan
videosu
duyan
ios
sosyalist
denizi
##work
peşin
##emde
biriyle
işsizlik
kitl
##derek
sorusu
imaj
##itab
krist
##cim
türklerin
celal
“ş
kurumların
cild
erkan
fol
kost
plus
karışım
yarışı
erzincan
kastam
tabanlı
cihazlar
##ırda
değerlendirmeler
yök
doğdu
word
##je
ücretli
öldürmek
ülkelere
##gay
müc
öneri
üniversiteler
indi
##ediler
seramik
halini
kapsa
##veç
tela
kesme
metab
kullanın
süm
kadınlarda
bakımdan
kilometr
##ümüze
ölçekli
kıskan
##abilmesi
belirle
ruhsal
bileşen
yazılımı
düzenledi
aşkı
##uydu
tüketimi
sikiş
yon
açıkçası
sarım
yaptılar
seçildi
bini
##zaman
##ümüzün
sorularını
##âb
milleti
gizlilik
kişileri
toto
sağlanan
##ift
ederse
nimet
##adet
chan
yönetmeliği
oradaki
memnuniyeti
bırakır
kenan
duyul
yle
1991
hastalar
cephe
dilerseniz
##ita
ilke
okullar
hidro
hint
çıkmıştır
##sapp
hatalı
##ikler
sürecin
listesinde
görüle
iddialı
dinleme
##renin
gönderdiği
biçimi
başkanlığında
izn
##ğiz
olduktan
ösy
pekala
##ören
kabar
görüntülü
giys
##delik
i̇nönü
çalıştığını
i̇ht
diyebiliriz
##üsüne
##ruklu
##baz
şev
hayv
aramızda
##luğuna
##mektir
##oker
seçimler
1960
neyin
erit
ortaokul
male
bitcoin
müsabaka
boşanma
biten
sahibinin
yapısal
i̇stanbul’un
ziyareti
motorlu
##çer
edeceği
nazım
sanatı
##eyebilir
##ğından
##leşmiş
##yetik
devrimci
##ydım
luk
##oc
harç
motiv
bk
sahneye
##pres
önündeki
ağacı
prose
şimşek
bildiğim
şehrinde
görüp
##sika
yaşandığı
##eceğinizi
inç
oranının
yatan
işkence
yatay
yut
kaldırıldı
##yr
##leyebilir
sahaya
ambulans
nihat
konsan
##ges
##çelik
kırmız
promos
yapamaz
sabancı
önlemler
uğrat
sürer
kayd
##leks
i̇stiklal
i̇şçi
gözlük
bela
geçmişi
havaalanı
ehliyet
i̇ster
biyolojik
amasya
dünyaca
gelmeye
##iyse
tamamlandı
deyiş
##ああ
görüşü
denildi
esin
reng
servet
“t
taciz
elit
##ekt
dediğim
andan
fev
çocuklarda
yönetmeni
##idor
köklü
etmenin
bağlamda
##tüel
faaliyetlerini
öğrendim
karakteri
od
kabin
bereket
istediğin
afrin
alarm
öbür
enter
redded
yarısında
magaz
getirmiş
heyecanlı
yuva
özgürlüğü
##mayacağı
dökül
alçak
kısmının
burç
tamamlayan
ayni
bölgesine
promosyon
müslümanlar
robert
havaliman
odasına
sütü
yaşana
hissi
prosedür
birikim
##hard
##eron
edilmesini
##asal
demişti
programının
##alem
yürütül
hemşir
ruhu
üni̇versi̇tesi̇
malzemesi
modeller
##eceğimizi
endeks
ti̇
##diki
rota
endişelen
##layabil
katr
start
balon
ekrana
110
zamanki
psikiyat
sms
destekleyen
menkul
sahasında
okulları
gitar
durumdan
##üksel
##oviç
aşan
havacılık
yazarın
yapacağını
coğrafi
denge
hesaplama
başlayıp
##tıklarını
uzaklaş
gerektiğine
yazıları
mesai
sitesinden
animasyon
zav
suda
unutulmaz
kuruluşlar
mermer
kurallar
seçimlerinde
müşterilerine
kazanmış
çerçevede
i̇şin
bölümüne
tatb
aşağıya
##ato
çöl
yönetiminde
tütün
1970
hamam
##eceğinden
takıma
ayna
otorit
sürecine
tercüme
gürültü
köyünde
canavar
hepsinin
otelleri
yorumu
engellemek
elif
çubuk
##27
bilinir
##ıh
bilinmektedir
iso
thy
ayına
kirli
##iel
bulunacak
i̇bn
verildiği
emri
karabük
müşav
belde
müfet
##ilmi
##üsünün
başlaması
##müştüm
i̇ste
hafıza
seh
anladım
diyoruz
whatsapp
görüntüler
yapıyorlar
üzüntü
ilerlem
elektro
##ebileceğiniz
anlık
baktım
etmeyen
karşıtı
kozmetik
çarpıcı
olmay
big
kuşat
tenis
çoban
##ea
adayları
sayısında
kurut
telefonla
##acağınız
karayolu
geçerlidir
çekip
harc
açılır
konusunu
âyet
köprüsü
daim
kurumun
##akkak
enj
yayla
dönmek
konudaki
soylu
güçlük
malum
rehabil
ök
torun
stu
farket
beşinci
düşünerek
konforlu
yöntemler
##and
karat
kolu
hazırlamak
##000
çekiş
minimum
rent
evrim
artvin
hırvatistan
çerçeve
günkü
tehlikeye
verilerin
vara
vermem
oluruz
kot
şehre
zirvesi
şe
##ızın
otelde
##melisin
yaptıktan
meslektaş
birbirini
gittiğ
##66
formül
cihazları
##çiliği
korsan
taşıya
göreceksiniz
gerçekleştiren
soruyu
tanrım
yemekler
tutuyor
anas
nehir
okut
taşıyı
halle
döneme
koridor
saatler
destekli
molek
inde
yurttaş
##ikal
çankaya
bölgesindeki
yapının
##mama
çamur
saman
olmaksızın
##dyo
kastamonu
i̇yi̇
yakışıklı
merhamet
ücretleri
çeyre
takımları
##muştum
ingilizce
kalkın
##äÿ
fiyata
##biye
çayı
milliyetçi
##vak
gösterg
derler
nuri
##ota
vaat
makul
peter
ron
konumu
evler
##leştirme
all
suik
##kay
görüntüleri
iltiha
anahtarı
babanın
meksika
muta
başarısı
çıkardığı
çınar
with
i̇zmit
babamın
i̇c
odada
yaşadık
devletler
sormak
##ilmesinde
130
yozgat
##osman
portakal
anlatmaya
##90
tıklayarak
tıklayınız
güzergah
mıydı
##çay
oluşturma
kullanışlı
elle
kazanacak
renkleri
efsane
veteriner
özerk
teşeb
başladılar
özelliğini
alınmıştır
kürdistan
kazandığı
suriyeli
bireylerin
etmeyin
isparta
##izme
bulduğu
pencere
hatırlatan
i̇stih
i̇dari
müddet
kabu
meraklı
çaresiz
burayı
yapama
politikalar
“g
bildiğiniz
##barek
nelerdir
cik
lakin
basamak
şarkısı
hara
söyleme
##bini
sgk
yetenekli
litre
niteliğinde
muhakkak
sıfat
##22
efendimiz
beyoğlu
sayısız
batılı
planları
böylesine
görülebilir
yollarını
komünist
soğutma
kud
haydi
istiyorsan
bine
olaya
yarg
şarkıları
takdim
seçilmiş
##hoş
##masa
istiyorlar
takımının
şır
til
yönden
sayıları
##eyt
pompa
##inler
mücadelede
hırsızlık
##ersek
görüşmek
hastalıklar
turistik
şekillendir
adi
##lig
programını
güncellem
ilerleme
master
helal
##daa
bireyler
araştırmaları
gerçekte
okullarda
king
ml
faş
varol
makineleri
##ymış
##dos
yerle
şaf
##ilebilecek
##delen
##ûm
karı
cha
sandaly
olanağı
yiğit
olanlara
ülkemize
kesint
kaldığını
teknolojinin
vis
dilediğiniz
##bap
aniden
dışından
hesaba
omur
abone
açılacak
terey
kararlaştır
ilaçlama
##lidir
danim
söylenen
##fone
##ınıp
görüntüsü
ürünlerinin
i̇mparatorluğu
##omi
ülkelerinde
vücudum
##ette
olmamız
maddesine
spa
lerin
voleybol
ssk
“y
çalışmada
ülkedeki
doğrul
olacağına
sofra
##malısın
süreyle
demet
gemisi
jul
annenin
tarama
araştırmaya
başkalarının
branş
belirtiyor
##cağımı
sha
##lamıyorum
eğlenc
çıkarken
istemek
##ida
saklı
muhtaç
makinası
##fiye
##abilmektedir
##cım
koyan
##tle
taşımak
bi̇l
keyfi
gerektiğinde
ita
ilgisini
oynadı
##kb
kalbi
öteki
görevlileri
yetkisi
kapanış
açlık
##stal
bilindiği
gelmedi
vereceğim
##lenmiştir
düşmüş
sahası
yaralanan
lübnan
olduğunuzu
i̇htiya
kâğı
ford
kef
yatırımlar
kağıdı
pes
reel
medi
##amin
##düler
##ence
ilişkili
##ary
arayüz
kazada
bayrağı
transferi
bulundukları
mutluluğ
##ä±n
hazırlama
dikkatini
arın
şaşkın
##port
tedavisinde
çıkmaktadır
bölümleri
sağlanır
çakır
tekne
duymak
öneriler
dinin
##emediği
yuv
yelken
bekler
##cir
##ion
elimden
hükümlerine
katkısı
##cus
konuşmaya
aksu
alanın
kullanılma
niz
home
jean
almanca
âlem
bölgelerinde
ifadesini
##enize
aydan
danışmanı
haya
acele
duygusu
durur
onayı
koruya
yarıda
foto
türkiye’yi
projede
nihai
ihtiyacın
giydir
nefis
çıkışı
hazin
ceo
##eliğin
##cilere
##low
arayarak
objektif
giyen
##ford
belirlenir
ufuk
internette
i̇lköğretim
nehri
##nde
taraflı
sonuca
bırakan
yürüten
kazası
brüksel
##diğimizde
direksiyon
çiling
kıdem
kızgın
gra
##iyete
alanındaki
atina
yeğ
arıt
##ücük
yüzük
pirinç
##eğim
arkasına
yaşıyoruz
sulama
yaşından
turları
koşullar
##ğınız
kuşkusuz
gününe
ferah
organizasyonu
yapa
kaçan
ofisi
ligin
350
yedik
tahmini
vereceği
kadem
dayanarak
yerleştirme
soruya
derinlik
coşkun
sistemde
başıma
mg
müslümanların
müttefik
ihtiyacını
##deri
##ct
##ento
hükümetinin
##une
##deres
##’lı
destekle
adının
derim
##ûr
zırh
##34
hedefle
oyuncuların
durumları
işyeri
hesabına
akademisi
##değer
sini
rehberlik
karadağ
##ýnýn
maltepe
köl
şahs
ekleyin
bağımsızlık
yılını
zarif
##lamasına
##anam
elimizden
açıyor
gelmesini
tadi
odalar
cevabını
##layınca
halkına
bağışıklık
rakibi
eğitmen
sokağa
##ersem
yıkan
liberal
ov
##sür
##linin
şişli
problemleri
kupon
çalışmalarında
olurum
gittikçe
##ym
zeytinyağı
tt
##li̇ği̇
çalışmayı
müşterilerimize
seviyeye
##týr
mert
vasıtasıyla
adresinden
kiz
müdahal
nedenleri
teslimat
tasav
yrd
muhat
bozukluğu
##¿½
pel
##pon
halbuki
kumar
algılan
i̇rlanda
tutuklandı
sürgün
domuz
görevine
##çekmece
suyunu
fransızca
belirtir
andre
kaplan
söyleyecek
kılan
note
##mamıza
ica
stüdyo
veritab
savunan
geçtiğini
kutusu
gey
komedi
160
merhabalar
140
olayda
sorar
başaran
i̇dare
aklına
yazının
bölü
mesajları
tarihini
şifa
eğitimini
rok
söylemişti
faydası
halkla
tekin
bulunmakta
kalor
sudan
tarafına
##guluyor
##oth
çıkabilir
hayret
örnekler
##cağının
bunca
mütev
başlamıştı
çıkarıyor
gözyaş
##oterapi
karşıyaka
olacaktı
muaf
aldıktan
##lerimizle
müzisyen
ösym
##diğimizi
##ill
fabrikası
devlete
orda
##last
kıt
php
manken
saddam
guz
##ilmeli
aradığınız
boyunda
çözül
yaptırmak
talebinde
sesleri
mübarek
güvence
bulunmamaktadır
hayvanların
mesafede
asil
sinop
##elebi
##astik
çözümleri
kullanıcıları
operasyonda
bakırköy
kardeşler
kayıtları
bingöl
politikaları
aramak
ilişkilerin
amacımız
cre
yanımda
“türkiye
kavur
alıyoruz
gördüğümüz
ödü
lib
tıkla
konumda
birebir
taktik
havlu
download
##çinin
##ikatür
milan
parlament
saba
farz
vesil
eşim
saadet
jüri
işlerin
esmer
eksi
imha
öğüt
uzakta
ket
metrekar
hoşuma
talepleri
unu
samim
kullanımına
doğuş
adımı
uçağı
meteor
yazmaya
elimizde
bildiğimiz
yapanlar
şartlarda
pusu
maçını
hasret
bellek
katrilyon
dakikalık
etmekten
##’l
##delim
yenileme
yetkin
sergisi
sıkıcı
eczan
gereksinim
görevden
gözüküyor
serkan
dosyası
##vara
nan
değişti
tiyatrosu
##lunun
gittiğini
yaparım
galer
istisna
çiftçi
dosyaları
minnet
##leyebilirsiniz
premi
geldin
##lamasını
##ürken
kanalizasyon
oluşturulması
koyduğu
kilise
bölümünden
hatıra
##35
atın
ayırt
düşündük
ygs
ambar
bill
maya
gerekecek
akan
sıralama
sağlayarak
günlerinde
deyince
sarışın
soyk
##lant
##ward
yöneticiler
talih
kelimesi
başarıya
telefondan
gerektirir
karikatür
torba
adan
alındığında
çarşı
bulmaya
giderleri
uyk
##ou
##masý
hane
ağırlığı
elindeki
aranan
polise
manev
açılmış
pv
lou
##oma
geliri
videoyu
bulunmuş
vadisi
konferansı
tekniği
dünyasına
gözde
beylik
parasını
##istir
valiliği
kompoz
mag
ikil
suçundan
anlaşılan
çalışarak
notu
dengeli
işçiler
lehine
içindir
ümran
zorundayız
##ıldım
efes
kıyamet
büyüy
arkadas
bölümünün
##alp
112
ümmet
dereceye
yapmıyor
##în
işlemlerinin
akr
tered
konumunda
buluşma
konuştuk
sonlandır
bahçesi
flash
bişey
öğrencilerinin
bt
menderes
acent
çarpış
detaylar
açıklan
yıldızlı
kendisiyle
##laki
satım
yazımızda
##lass
arkadaşın
penaltı
##pazarı
cafe
##bakan
##ics
gelişmesi
yüze
intern
kestir
makar
seg
##tıp
yanındaki
ekipler
asır
##lının
##……
i̇stanbul’a
dinlemek
iskel
usulü
##lish
##con
ömrü
sportif
panik
şehircilik
dişi
düşünme
böylesi
izi
görmüyor
sistemler
212
desteğini
isı
sili
tik
güle
işlemini
##gele
niteliği
gitme
##cağın
iyidir
nedenlerle
kızılay
konsey
sundu
muazz
sözleşmeli
berbat
bitiş
yapmakta
annesinin
kızları
ilde
sitesine
##izma
dinlem
cli
tehdi
ölmüş
mühim
kalça
uygulamanın
##gue
yoğunluk
kesimi
##ikli
geçirilen
img
##cül
pos
katman
tetk
barındıran
başkanlığına
dikiş
kendiliğinden
korkusu
devred
sl
##bos
ticareti
videoları
##gara
##ness
sıralarında
söyleyeyim
teorik
yapmamız
alıyorum
##ılırsa
hapishan
çalışt
##amanın
##ispor
koşullarda
zorlan
##koz
##lar”
anon
lık
sami
ayrılık
bilerek
gebze
düzeyi
tanımı
##lenmektedir
##stat
##ettin
olsam
mary
özelleştirme
##abileceğini
çatal
ltd
güneşin
fiyatlarla
değerlendirmek
beklentiler
yönü
önerileri
reaksiyon
çağrısı
stev
açıklayan
dun
i̇ma
rüş
##vis
periyo
danışma
##başka
tro
oteli
skan
kabuk
eksen
ilgil
##cd
nitelikte
ayağı
ercan
siber
bağlama
kullanacak
entegr
emzir
zahmet
kimdir
atmış
##36
şifre
##uğ
üçlü
tekel
satran
hüzün
##ella
kaldırmak
yaya
karısı
##lenmesine
çalışmalarda
buralarda
cehennem
tereddü
ışığında
onda
avrupa’da
##ulus
harman
doküman
pansiyon
istersen
görüşleri
karlı
yapımcı
seyirci
belirtileri
yarattı
altay
elimde
mesajlar
alevi
kası
sony
uzmanları
şener
çelebi
##fon
kullanılmış
##king
hatası
kaydıyla
örtü
türki̇
geçirildi
harekat
##ref
çözmek
parfüm
engelliler
1989
intikam
91
verdiğim
türden
sizlerde
rem
i̇y
##ction
aldılar
faydaları
##iyordum
açısı
başlıkları
liradan
kararnam
##emeyiz
kutup
viy
##ifer
fiziki
##ayeti
bilirsin
##ýndan
değişir
türb
açacak
dra
##ısıra
karşınıza
üyelerine
ersoy
##21
##ory
dublaj
erc
##larınızla
yanından
hakkari
öğrenebilirsiniz
partilerin
au
buluşa
##mazsa
adliy
i̇çi̇n
işçilerin
##calan
vatandaşın
hayatımda
##box
##hut
ihal
temp
harp
aileleri
tatlım
##unuş
kalmaya
##mene
ceset
ellerinde
uygundur
öğleden
acımasız
sıcaklığı
##siyum
##lenebilir
iddiasıyla
gelecektir
lava
minibüs
avuç
teset
çekildi
yakınlarında
##culuk
nazik
demirtaş
dolaylı
şimdiki
##lýk
##ılmadan
adap
iyisini
##ganı
fragmanı
##lendiği
oscar
çeşme
alışkan
okan
##sf
yanısıra
kalesi
üçünc
çapraz
hizmetlerin
cay
derdi
tarafın
hoşlan
karşıt
basına
oturt
##edecek
##gâh
boğaziçi
gelmeden
saatlerde
soyun
sevgiler
sevgilisi
söyleyebiliriz
ocağı
çorap
fıst
sonuçlarına
sınıfta
yenik
kitabında
kazanıyor
##ileceği
müft
##ekler
amp
fakül
vest
yaklaşımı
hoşgör
ekonominin
##isten
bilmez
yürütme
teşh
##eçh
yaptın
senary
çilingir
kun
ebru
yayını
önlemleri
toy
zararı
kendilerinin
tamiri
tutulması
çıkarılması
takibi
denetleme
##ünüze
kendiniz
sovyet
müdürlüğüne
gelirse
geleceğin
krip
piz
mektubu
gününü
hayali
ülkelerden
gazze
martin
konsolos
özbek
##cular
##ısın
nap
dizel
birimleri
i̇şler
zihniyet
iştirak
listesine
kahveren
kamuoyuna
istemeyen
belirlenmiş
##lamıştır
##dığımda
prenses
nasip
##latan
##izin
çevresel
hon
arta
izler
1950
puanla
silik
zordur
lefko
püs
##lıkların
mensu
kuruluşların
istif
putin
gibiydi
yerlerden
anlaşılır
750
macaristan
kalka
sevinirim
mecl
hastalarda
anap
gruba
##oksi
187
konulan
edilmesine
taşımaktadır
pendik
antibiy
spek
alıntı
ız
yapısını
koyar
sitesinin
##win
##ston
cezaevi
denktaş
olmayacaktır
tru
uygulamalı
##tayım
sandalye
dağılı
##siyle
##ilemez
tot
avantajlı
merkeze
ral
olamaya
partisinin
diyecek
ellerine
kurulacak
##ase
back
konusuna
##ılıyorum
iþ
projeye
gömlek
gürc
inş
kurulunun
##gir
filminin
butonuna
arındır
##sion
dat
##lamayan
karışımı
kristal
##çin
yoğur
hizmetini
arasındadır
katılımı
farkındalık
istiyorsunuz
##emedik
artışla
kuruluşlarının
feri
##anak
elli
##ens
çizim
obez
aleyhine
talimatı
oynanacak
##urn
kıbrıslı
hab
tuzla
güvenliğini
189
istismar
##aat
yeterlilik
##vaz
##ılmalı
motivasyon
past
gezin
şaşırtıcı
başlattığı
diyebilirim
oyuncunun
i̇leri
saldırıya
sola
duyuyor
dvd
bürosu
gitmeye
kanalında
##latma
##gos
araştırmacı
##iter
iniş
isterse
##iyeler
uçur
edemey
kaldık
örgütün
üretmek
desteğiyle
muş
güldür
yakası
norveç
##ian
##i̇ad
##feti
##ağını
kütüphane
muciz
tümü
geçit
yapılmalıdır
çalışmasını
rehabilitasyon
konuşur
##dıma
akif
##sunda
##eyip
##ehr
noter
##cis
maçları
##iyorsa
çalışmış
ini
##taur
sorunlara
göstermiş
görk
akademi
müşterilerimizin
trakya
bakma
sevindir
##gusu
##ï¿½
paylaşıyor
pdf
riskini
reş
ilgilendiren
##’ler
sper
yapılar
görmedim
##’ndeki
lad
hacmi
i̇statistik
kenarında
görüşlerini
öcalan
anlaşmaya
almıştı
dere
burhan
grubunda
merce
ayrılmış
hedefleri
grubunun
söyleyebilirim
125
yaklaştı
##erson
yalıtım
resmî
bakıp
koyuyor
akaryak
ameliyatı
bre
cezasına
grand
çevreye
önünü
##duğuna
##imer
geldiniz
##amızdan
sınıflandır
tutarak
yaratık
sarhoş
arar
bankanın
dağın
sağa
nakil
gelme
kendimize
ilkokul
düştüğü
ozan
huy
listede
yararlanmak
##ebilirler
asist
##lamaktadır
beykoz
##esif
çevresi
##hak
arnavutluk
##vir
ödemek
##uluğu
yaşayacak
kırım
gürcistan
amca
##dini
##arş
baharat
aylarda
kayg
şayet
##yem
uygulamak
şeylere
##adı
aktaran
maddelerin
sürülen
##þtir
##esih
nü
türki̇ye
##sir
kudret
affet
sahiplerine
denizcilik
ısır
itaat
muc
koruyan
##tiğin
power
naf
mağara
beye
enstitü
soğut
sancak
##cum
evinin
kaplı
sahiplerinin
##46
işlemlerin
sema
##ilet
kırmızılı
pank
gücüne
abla
çiftlik
dondurma
başlarında
zirve
ilişkiye
uygulamayı
kullanılmıştır
nasil
uncu
angeles
atatürk’ün
##fte
ailem
##anta
menaj
faaliyetler
##aktif
barcel
etmedi
şikâyet
sars
##seler
kobi̇
olursanız
telif
filminde
gecede
haberde
hususunda
##mektedirler
yazıp
##…”
doğrultu
yumurt
damga
düşünüyorsun
##haleye
eksiklik
keçi
##lamasında
danimarka
bık
ölümüne
yorul
avukatı
çıkarıp
yetin
ezber
guzel
##igh
depart
hastası
##idir
itfaiye
##ora
tarafsız
ts
kalmıştır
sitemizden
yatırımları
tuttu
bırakarak
liderlik
temelinde
ediyorsun
##ero
şarkılar
i̇kin
özelliklere
kıç
kıyasla
hun
“f
cazip
voda
cihazın
görmesi
konuşmasını
soluk
merakla
almaz
danıştay
rahim
##eff
prensi
iseniz
projesinin
dalında
oba
vey
onca
##inceye
##ürk
mahallesinde
askerler
papa
##lıların
##tığınız
şeylerden
ceylan
gon
ulaşabil
önemine
bulabil
##artma
otoy
ky
club
değişiyor
gelirken
doktorlar
##laşmaya
tho
riz
mülak
ileriye
yakınları
peri
yaşanıyor
elemanı
termal
opt
lens
özeti
edebilmek
atıp
inanan
mühendisi
çekilmiş
tribün
kullanıyorum
optik
hersek
savundu
süresinin
insanlardan
##kuş
gelebilecek
mutsuz
internetten
##osuna
çevrimiçi
##ınak
##well
biriktir
cn
valilik
üreticisi
özenle
damg
gördün
versin
isterdim
yeterlidir
yarısını
bunlarla
kurallara
yaratı
bulunarak
yapıyorsun
imkânı
değişiklikleri
kapasite
seçime
zorunludur
mb
çalışmaktadır
ekrem
ürettiği
oluyoruz
cihan
çekiliş
kuruma
##tma
törenle
ayva
##apur
##iciler
çözüme
manav
cemil
fizy
hazırlanması
kuyu
olmayabilir
##teydi
##otek
gösterecek
civar
ödülünü
taklit
tanınmış
yayınladı
geçerken
cc
tanıtımı
ataşehir
i̇lah
pri
data
ödüllendir
##ebilirim
kiralik
##inizdeki
dayat
koyarak
##uştan
gan
verdiğiniz
okurken
oynar
##ri̇
düzenlenmesi
yapılırken
kilisesi
ellerini
ekranda
imal
tesettür
kışın
##eliğini
töreninde
üniversiteye
##memiştim
açarak
çatlak
eğilim
borsası
çocuklarını
takımda
açıktır
çare
suikast
hallet
düşmanı
kuyruk
biliniyor
futbolcular
bilek
odun
heves
yerlerinde
ihrac
dağılım
mezuniyet
tahl
taktir
i̇hsan
##ırız
lg
##lerinizin
saldırıda
sektöre
başakşehir
time
inat
annen
almanız
##uth
dn
cla
markanın
planlıyor
isteriz
##bi̇tak
istemem
soykırım
step
kıta
kapsamına
yönetmeliğin
mekke
örgütleri
haklar
yaptığın
##larıma
kapsamındaki
burju
##ılmasında
yazarlar
hı
fırında
monte
güngör
vermişti
erkeklerde
beh
armağan
tutku
satranç
kaydır
sıkıntılar
vodafone
sabaha
uzlaşma
teşebbüs
##lamayacak
olumsuzluk
anasay
sensin
tutulan
şükran
manas
törenine
kullanmayı
sac
birisidir
görünüşe
kurulumu
ai
iğne
değinen
yog
tamamlanması
restaur
bakımlı
döküm
dersiniz
this
iştah
şal
süpür
medres
garantisi
sakınca
kili
ayrılır
lefkoşa
fare
törende
##üyük
##lüt
oyla
##ladıkları
yükü
kuram
müsait
yardıma
odaya
gazetecilerin
yanınızda
standartları
##yordu
ortaokulu
metabol
havuzu
koşulu
kaybetmiş
kurallarına
engeller
benzersiz
anlamaya
barcelona
psikolog
şirketinin
grupta
konuşması
mevs
gücünün
versiyonu
abdul
bölgeleri
##rarı
başlangıçta
çem
gelinlik
yapmanın
ülkelerinin
##cinsel
##aşı
kabak
niğ
siirt
##layalım
birbirlerini
evliliğ
şenol
##esidir
##oğul
##çıları
riskli
tümör
##ti̇m
sky
sanıyorsun
##madık
deplasman
kullanıcılara
peşinden
olana
hizmetin
gördüğünü
göstermeye
habere
##suru
başvuruları
##ont
##seydi
döneminin
dist
aksa
davada
bulunmadığı
işleyen
##gem
##ansa
yıllara
kolaylık
pilav
haberin
sabun
##dıran
yurtiçi
gidiyorum
biter
düşmesi
teması
hül
cu
marmar
bra
işim
golü
finale
haluk
harik
bulaşık
##main
olasılığı
“n
lamba
ikincisi
neti
devri
fikret
takılan
çevresindeki
olmamak
ettin
vermekteyiz
tabela
kararına
##stein
getirip
yapmaktan
group
yahud
##taşı
takımlar
olayla
center
dünkü
davutoğlu
zavallı
istikamet
yeteneği
bireyin
eşinin
mesci
öncesine
bav
iktidara
şırnak
hizmetlerinin
savaşta
##lığınca
sıkıntısı
elveriş
belgrad
##jder
durumunun
açıklamaları
tüfek
taç
##gıcı
feda
hükmü
kararıyla
bulunmuştur
##nı
mevduat
network
188
aktardı
öldürür
sektörüne
soruyor
yapi
kaybo
fizi
bilecik
gerçekleri
kaçağı
soğu
aydınlık
nevi
vazif
başvuruda
##ılış
paraya
##düzü
antibiyotik
sayım
bıraktığı
hort
merkezinin
taraflar
masası
getirme
onaylı
kafe
şiddetle
araştırması
zu
garantili
porta
çukurova
##ert
##imdeki
telefonda
hesabından
just
##ayi
gizemli
fifa
latin
##kun
vücudu
alacağınız
bitkiler
##ansta
katında
fiyatlarını
##ladığınız
deyişle
kameralı
türkiye’den
eği̇
eklenmiş
##mine
tuttur
##had
gitmesi
vücudunuz
tayf
##lamadan
gazetede
tatili
ailelerin
uyruklu
öğretmenliği
çoğal
psikoloji
bülten
170
holly
kullanabilir
altyaz
alanların
görecek
##dünüz
klasör
tutma
aranıyor
kaybeder
meral
korumaya
geçmeden
kibar
pic
sahnede
selamlar
dışarıya
vermeyen
ihtimalle
akaryakıt
annemin
aletleri
haydar
i̇f
bölümler
##ifi
hukuka
insanlığın
##eceğinin
##larımla
##gm
##’nu
almasını
sürat
##hem
hedefleyen
beğeni
##melerinin
gereç
tobb
##ost
destan
##mü
##ladi
##ýs
geçtikçe
kanuni
ödemeler
hükmünde
##oluk
açabilir
jener
atlan
diril
sloganı
kullandığımız
kandil
resimli
kuzu
##koç
##nel
gidiyoruz
muazzam
şükrü
eliyle
“sa
gündelik
ender
alper
vermedi
bambaşka
hareketle
##ã§
##cen
ut
##laşıp
broş
kontenjan
yasağı
yes
yargıç
sanatçısı
ermenistan
hayvanları
cı
görünümü
satmak
golf
mercedes
##yetler
bronz
havayolu
international
vil
iri
netice
##’taki
##fir
almakta
ümraniye
öldüğü
atıl
tahrik
olaylara
oluşturmaktadır
##ikleri
diplomatik
##lacağını
standard
elmas
arız
##dok
casus
ıslak
yöresel
##amadı
seslen
sorulara
hedefimiz
nüfusun
fakülte
gezdir
parametr
tanışma
##enlerin
mun
havale
seferinde
olunur
güvende
gönderme
rena
##ırsa
##alet
edilip
bilemiyorum
duyuyorum
ağabey
olmadığından
tanıyan
izledi
hum
boyama
duru
harcan
haklarının
yenilg
şartıyla
göstermesi
kentte
aygı
yakalamak
##karahisar
sorununu
cahil
bilimi
cek
albayrak
şirketlerinin
katılarak
nick
tedbirler
göztepe
oldugunu
gelişmekte
verecektir
sezonda
##au
##osunda
üçte
tıkanıklığı
başkası
bilginin
##osh
tereddüt
i̇şbirliği
bölgeyi
sıraya
göndermek
burdur
##anızda
free
müteahh
oyunculuk
prov
eğitimde
erdal
##ake
bağlayan
ayıp
azaltmak
ayrılma
silahı
sunuluyor
devletinin
şerit
sarımsak
##dest
vereceğiz
rüşvet
taşıdığı
kahverengi
##ememiş
##çam
##iyen
yapıda
simg
cim
yedir
sağlamaya
##cem
##kurt
graf
dışa
zo
haç
kursları
##’yu
kıp
göstermiştir
kartları
yüreğ
birbirleriyle
##tığında
şeydir
gençlere
merkezde
##biliyorsunuz
tutanak
şut
rektörü
i̇cra
otelin
1987
öldürüldü
ekleyip
##fice
değerlendiren
ardahan
çalışkan
yıkım
keşf
europe
kötüye
sordum
usd
ilki
muht
ettikten
belirleyen
yeteri
hücum
kimseler
mücadelenin
leyla
sunulmaktadır
tübi̇tak
projeyi
hatırlıyor
##lad
##haber
olman
makro
hü
potansiyeli
##hh
abar
tasarısı
tüc
öğretmenlerin
##45
destekler
##ech
hayr
tutmaya
görüştü
##75
küs
kulübün
geomet
borçlanma
##gg
indirimli
müsaade
zulüm
avrupa’nın
haftaya
##çilere
birinden
##lilere
şişman
yüzlü
vuran
şişe
demiryolu
##imes
yakalanan
içeride
restaurant
##osunun
belediyeler
havayol
band
numaraları
anlıyor
güzelliği
yasanın
edilmez
açılışı
dokunul
etmesine
##çağ
binali
tasarlanan
##eck
hizmetine
##mese
müjde
açmış
kimler
dinlenme
##di̇r
dünyadan
donald
üretiminde
otomasyon
komit
tuşuna
niğde
bebeği
maf
tuzak
##ağın
düşüncesi
##iğinin
yaklaşan
başvurular
harcı
nör
seferber
##bab
müfettiş
temeli
presti
uzunluğu
surat
kapıları
çoklu
bölgesinin
kalitede
konusudur
##etin
atlat
##cm
eşitlik
dha
gösterisi
yönetimine
kendin
makalem
##pen
ödenmesi
yapıları
bırakmıyor
öğün
dantel
##arl
ziyarete
metod
periy
sürün
olabilmek
##larini
but
kaide
sırrı
mih
karıştırın
belgelen
değir
piyano
ziyarette
##ruz
eğitimleri
##erin
olmayacağını
##ızda
yapıt
gündemde
yapısına
sıralarda
i̇nsanın
polisler
artacak
gerekçe
opera
kitabını
yaşantı
yapılma
##lex
önerisi
##lasın
nevşehir
tedir
jose
##sinden
##pas
yazdım
havası
dum
adresini
##akat
finan
alacağım
bazlı
dim
sarıyer
magazin
leg
makamında
açığı
merkezi’nde
##larımda
uygulamada
##leşmesi
edilmek
ereğ
getirmeye
gazı
hikayeleri
canı
##dirler
vatandaşları
akışı
listesini
yöner
##28
##ınacak
yaramaz
otele
gecelik
yorgunluk
fotok
meryem
##usundan
pürüz
geçirmiş
içmek
yaparlar
geçmişe
yapmaları
imalatı
yüksekliği
anes
denetimi
vaziyet
bayındır
görülmesi
soruların
teyz
##minin
temsilciler
khk
##hel
inandır
marmaris
öldürdü
ödemesi
girmeye
1988
resep
birşeyler
büyüklüğü
##sınlar
yumruk
mân
üyeliğ
let
köye
##osun
wo
elemanları
aramaya
haksızlık
yıldönümü
mühür
##not
yakalan
durmak
krizin
çeşidi
ışıl
oğlunun
##akâr
dikt
telefonun
başlangıcı
##26
kada
##ömer
yaşını
artırılması
derse
sapan
kadınla
##chi
dinam
ortaklığı
belgelerin
##sana
##cha
##kiler
inceleyebilirsiniz
##ilmesiyle
olmamış
beyazlı
##lıklarını
##yorlar
atıldı
fey
dileriz
tasarımları
oynama
seçmek
geçim
harry
destekleme
arttırmak
duyguları
öylesine
benzeyen
atilla
kısır
esaslar
mezhep
yıllardan
yaşadığını
şapka
lee
forex
kusura
eşyaları
ilahi
##o’nun
ateşi
heyecanı
biliyordum
##mayınız
eği̇ti̇m
##iğini
marşı
oteller
üyelerin
söyleş
##larımdan
lavabo
geceler
sanatçının
bire
çocuklarına
sorununun
sütun
##veti
çalışıyorlar
adımları
faaliyete
çıkarıldı
##ağında
dönemlerinde
eklemek
gelirler
emine
sürdüğü
tabiki
önlenmesi
öğrencilerine
nemlendir
ölüme
ela
batır
etmemiz
hizmetlere
çekimi
unit
##cını
doğrultuda
ların
evcil
eskisi
krom
yazarak
düşündür
gelene
dönüştü
english
kısıtlı
durdu
incelemek
babacan
admin
yargılama
verebil
güver
türban
testleri
tarayıcı
elektron
dağılımı
##stur
üstesinden
yapmasını
etkinlikte
yardim
aleyhis
##mayalım
toplamı
##reden
dönüşü
eylemi
oldugu
sr
gelirleri
sendikası
forvet
plaka
ilişkilerini
maçının
doların
zanned
##batı
ediniz
kapıda
beyannam
ziyaretçiler
eyle
konuşulan
gov
tems
bilan
değerlendirmesi
tedirgin
##mb
başkanvek
kalori
uygulamasını
##sünüz
christ
##ümün
kaybettiği
##vri
kule
alanının
cevaplar
kerem
i̇mkb
##com
soyut
azalma
yapılacağını
gizem
anonim
##stanbul
tabiat
götürür
karşılığını
fant
ilköğretim
bayağı
oynayacak
yazım
hristiyan
kaptır
öks
sayısına
güçler
değerlendirmeleri
tablosu
ağzına
senedir
##rafa
buh
kapılarını
içini
##33
statü
fiyatlarının
yüksekokul
kiraz
faaliyetlerine
##çık
sorumludur
cet
hamle
valla
medine
##ledim
nab
##bağa
ilçede
uçan
kurutma
##unuzda
rul
görüntüleme
bagaj
atas
kalkıp
görüşmeleri
alınıp
burc
şampu
yerlerini
limanı
bono
eşcinsel
algorit
1984
senedi
baskısı
ederseniz
manuel
##burnu
rahatça
##oğa
##acağına
severim
belirleme
özal
sürek
##iyla
sistemlerinin
pomp
severek
müşavir
sunulacak
çarptır
##oyun
motif
iktidarı
gecikme
okuldan
şefkat
izleyebilirsiniz
özlü
alanlara
merhum
büyükelçisi
yemen
dekoratif
romanı
dönmesi
yardımcıları
ekibimiz
kıza
nedense
güzeli
richard
düs
##pektif
##ikasyon
ekranı
durumdur
sunacak
kadin
##99
şiirler
##ll
reis
1982
1985
renault
paran
konulara
##lamadı
uğram
sulu
verebilirsiniz
gsm
düzeltme
bektaş
tuna
üniversitede
sepet
çekmeye
viyana
askerleri
öksür
geliştirilmiş
##lock
çaplı
##kırı
görmezden
kalmıyor
projelerin
240
anlamsız
kapağı
rejimi
cün
okulların
bulunmuyor
##memişti
kullanıcının
levha
##olsun
##ropol
olacaksın
bilgin
düzenlemek
ameri
bulunduğumuz
sağlayabilirsiniz
sürümü
1983
arkadan
yastık
i̇zin
kalmadan
manyetik
cenazesi
atıf
tram
gayri
##ulduğu
fur
##dom
çıkarır
green
akı
havanın
gelenler
that
çalışanı
##kinden
oynamaya
ultra
tul
gençlerbirliği
##lığındaki
karşılaşı
##meyeceğini
konumuna
kurmuş
saldırısı
ultr
360
kuaf
##ılmasıyla
##larınızdan
adamla
doğanın
mahkûm
##lanmamış
nokia
başvuran
##mil
bağlantısından
kalarak
çekirde
gerçekleşmesi
dehşet
gidelim
##’inci
izah
inkar
##ılmaması
yemeğe
##ýna
kanuna
fikirleri
atmaya
davranışları
dizide
edilirken
mahrum
ölümünden
partili
bütünü
sedat
element
##rut
alındığını
##gas
##mişler
korur
kullanırken
verilmesini
oluşu
dic
biraraya
##lenecek
geldiler
##ciliği
çalan
##ott
patlayıcı
##47
bilge
sular
esrar
tahr
##tina
yürüttüğü
kazakistan
vücuda
##opol
unsuru
ula
##ky
ekonomisinin
ortamlarda
##dunun
pyd
vakf
sent
dikey
avantajı
vatandaşlarımızın
güçlerinin
##lamasının
kılıf
##emezsin
ülkelerine
büyüklüğünde
yoğunluğu
kalsiyum
canını
bakanlığının
sağlığını
hom
kullandığınız
ekibin
çavuşoğlu
alamaz
yayınevi
arıtma
##ovasyon
md
105
filiz
yanıtladı
tasavv
diyorsun
##latıcı
##arat
yönetimin
özelliklerine
stre
inanıyoruz
ciddiye
devrimi
çizen
west
obama
sabırsız
firmasının
traktör
arayın
iftir
koymuş
gold
antika
milletimizin
manşet
diken
i̇kti
vatandaşlara
hülya
karşılaya
aleyhi
tutup
##ileceğini
vestel
“her
##lallah
##mişlerdir
fasul
“ya
beceri
##era
orası
hisar
ova
sözleşmenin
girişimci
mutabak
marat
yayınladığı
bilgisini
duygularını
ahlaki
zorunluluğu
hibe
oranını
niyetli
çıktık
##iğine
ikiz
sırası
tesadüf
denemek
selah
durmuş
##ınızla
##yarak
saygılı
adından
matba
rı
grip
##zı
güvenle
müdürümüz
açılım
taşeron
kuzeyinde
odaklan
##efendi
geçersiz
charles
çözünürlük
##ografik
birlikleri
biriydi
aldıklarını
hatırlıyorum
isteyenlerin
süreleri
alabilecek
yönettiği
tümüyle
##ekkil
paslanmaz
ypg
dilde
balıkçı
##hay
##ildikten
##cağımızı
rüt
##eceklerini
çıkarmaya
sonucuna
##üfer
koleji
##ağına
bürokrat
ülkesinde
açın
infaz
##ormal
victor
gitmeden
düşündüğüm
anten
##idin
leri
##malarına
desteklemek
##elek
1986
çıkarın
deyim
kurarak
esasları
##ınızdaki
mektub
kurulduğu
ihtiy
ifadeleri
##sinler
##iser
taşım
##mayarak
lip
sigar
daral
kalmayacak
olabilmektedir
##lemesine
yazısında
diktatör
##alın
çalışın
fırsatları
erdir
mutluluğu
ortalaması
avcılar
lokanta
yetim
şafak
hedefliyor
##stro
olabilirler
tâ
ödenek
şudur
sıkıntılı
olabildiğince
toki̇
mara
ütü
##ılmamış
broşür
##’lar
bb
vida
##lemez
çerez
düşüncelerini
araştırmada
bağlar
vay
wol
hediyeler
ekonomisine
sokaklarda
##ript
toplantının
konuların
ardında
gs
silindir
videolar
otomobilin
##’lerin
fedakar
kavr
birliktelik
kurultay
oylama
görülmüştür
okyanus
office
nispet
seyred
rutin
xp
##onomik
gerçeklik
hesabını
partiye
işg
örgütünün
etkile
yayımlandı
pizza
santim
girişimcilik
fri
ihracatı
1500
katalog
öldürülen
konfeder
fm
karşınızda
salt
üretilmiş
uludağ
peşine
azınlık
1974
görüşmede
özelliğine
bakacak
bi̇lgi̇
stop
enstr
olduğunca
##ıyorsun
hayatlarını
##yonu
bahçesinde
yolunun
tepkiler
özetle
ılık
wi
tunceli
köle
maj
##tekin
nus
ayakkab
karga
atölye
tanıdık
hollywood
gösterge
450
hareketler
krallık
beta
öldüren
font
orgeneral
kapatma
işletmec
##cas
ipad
og
“ka
ipuç
düşünmeye
denklem
##lib
listelen
periyodik
haklarına
##latır
çalýþ
tersi
nezdinde
##uza
kelimeleri
karşısındaki
mülteci
kın
##nü
##liğindeki
vip
aktaş
yapılabilecek
mizah
adrese
porn
sığınma
balığı
azgın
##ike
bulamaz
beklediği
etmekle
öyküsü
olaydan
okuyor
mi̇t
defteri
öncülüğ
##ligi
çifte
##lop
fazladır
vücutta
hazırlanmıştır
taktirde
“en
thomas
sirk
##now
şahsen
yardımlaşma
aylar
oluyordu
sevgililer
tercihi
diyordu
##lüğün
mevlana
aksak
##bahis
eroğlu
dikkatle
seçenekler
sunuldu
hedefler
fethiye
devamında
abdur
dj
vef
topluluğ
galeri
kelebek
hazırlayan
line
bürün
sanatsal
dahası
bitlis
alandaki
ekleyerek
deleg
imkanları
suçlama
anton
görevinden
##ning
alakası
##sed
hükümdar
##mann
kullanımının
tava
üniversitenin
i̇ddi
kurye
bağı
arkadaşlarının
paralar
kıvam
dolaşım
vamp
bakla
söylemeye
davul
medyanın
sevdim
şansını
yalın
dilekçe
fotokop
icat
geçebilirsiniz
sarık
barışı
temyiz
görülecek
toplayan
##tý
yüzbaşı
##amm
##digi
##hret
ekibinin
##tığın
dolgu
silikon
şiiri
kanalları
telefonları
kurmaya
tedbirleri
parlamentosu
sevindim
birbirimize
uzantı
çalışanlarının
##gc
##lığım
kripto
ebû
köşesinde
dernekler
bulunabilir
##duğun
##sl
yeni̇
abd’de
ürk
verilebilir
savaşçı
hükümler
ertel
yıka
çiçekler
öfke
zil
favori
hazir
terminal
afyonkarahisar
süresini
asistan
dram
tipik
bakıyorum
tarikat
bebeğim
ısıtma
tanımak
##üyü
devasa
almıyor
prestij
ulaşmış
yanda
##lev
wordpress
yapabilmek
ohal
aid
farklıdır
çekilişi
alınacaktır
yöntemlerle
ruhunu
mazer
kontey
##rit
yakınında
##üyoruz
çakmak
üreticileri
##imine
islami
eğitimler
##hz
korkmaz
##lağı
söyleniyor
modu
ötesi
bilirsiniz
##fl
çiğn
verilere
tutacak
kızların
faktörler
i̇ttifak
baskılı
kaldırma
eda
aklınıza
hallerde
tüccar
##laşa
186
ekipmanları
hedefe
##29
gerekmez
duyduğum
anlamını
hatalar
tarafların
sağlayıcı
arçelik
etkilerini
binalar
##ılabilecek
buzdolab
hemşire
erbakan
beklenmedik
girdim
nav
oluşturdu
verimlilik
yürüyen
çıtır
aradı
âlim
paylaşımı
edu
hayalet
sözleşmeler
tozu
olmasaydı
kapitalist
azdır
oturuyor
hoşuna
kişilerden
manastır
göreceğiz
coun
kâğıt
ereğli
hastalıkların
damat
kuşku
nakli
uğrayan
öğlen
kullanımını
mö
sadakat
##âye
##cısının
kuşada
karşılayacak
##gor
batarya
kocam
içermektedir
evlenme
yaşındayken
##ware
dağıtı
deneyin
yapabilirim
tahakk
muamel
i̇zzet
cab
iddaa
yayılan
izlerken
kullanılmak
ayarları
gazetesinde
cia
mont
metni
abbas
belediyesi’nin
rüzgâr
yoksulluk
anlıyorum
mensupları
temizlen
bırakıldı
##labil
mahallede
oluşacak
sas
münaseb
müv
##tions
dedikodu
##gön
markalar
kev
gelişmelerin
##sor
köşk
geliştirdiği
zeh
##yumu
koordinatörü
britan
bonusu
noktadan
radyasyon
kontrollü
müşterilerin
tasarrufu
##48
egemenlik
olacaklar
kayser
tiş
girme
yerlerine
zekâ
acar
görevlerini
##üldüğü
kak
gönderen
arkadaşımız
oluyorum
vermekte
libya
işadam
demokrasinin
bildiren
i̇lkokulu
üçgen
alalım
evinizde
kullanmış
davranıyor
karşılaşmanın
caiz
stk
seçimde
tavr
kurabiye
okuyup
amaçlayan
çiçeği
bh
##lemeyi
bebekler
kolester
iddiaları
##ox
eleme
anımsat
toplamak
almaları
##unacak
arkadaşlarımız
ölümcül
gölge
arat
##naz
değerinde
##etiği
karşılama
çıkmasını
sibel
düşkün
linux
##kapı
öð
yazdık
gerçekle
durup
yaşlarda
##leridir
iğren
ilinde
norm
##get
zalim
hatları
alınıyor
duygular
güzeldi
##layacağız
baska
züm
##chester
hazırlıklarını
leon
##sch
dyp
monit
öğrenciye
unuta
yin
yetiştiric
fam
giderilmesi
sonuçlara
tanıştır
bakıma
kazanarak
birbiriyle
forumu
kanama
kullandıkları
konv
“hay
sertifikası
sınavına
ayarlar
ediyorsunuz
kaka
universit
görevler
göğs
babalar
tarzda
çevik
yıpran
rom
ödenen
tartışmalar
##̇m
konsantr
aksoy
entel
isimlerin
hükümete
##itli
##alıyor
duvara
##dekiler
önünden
emperyalist
mülakat
malik
olabilirim
istenmeyen
kazasında
##dele
getirdik
salın
ordusunun
##55
##inat
##lic
puanları
ellerinden
##ilmemiş
barajı
mahallenin
fantez
kapısını
esp
rehin
zed
yılki
gazetesinin
“a
pekiştir
oyununda
iddianam
sanatları
problemler
uygulanabilir
fun
güvenc
mike
azami
##hassa
petek
vurgulayarak
##ery
saz
ulaşması
##rr
yaşıyorum
saate
##tiklerini
hası
bitirdi
yerleşik
##mýþ
imzalanan
kerk
istekli
hatırlattı
pazarlık
##dilerde
papaz
kilogram
programlama
protokolü
sperm
lokal
beylikdüzü
##iro
başsavcılığı
yasin
restorasyon
yenerek
born
göbek
değerlendirdi
tunç
butik
fikirler
cast
o’nun
değerlerini
atacak
konuma
##zim
##îm
salak
##kadir
gercek
eklenen
kapsamı
rön
annan
duruşu
çocukluğ
perspektif
gerekenler
orgaz
selahattin
üstlendiği
1920
arabayı
lezz
##bai
mücadeleyi
belirley
sanıyordum
şöhret
##ilebil
##meyle
0212
##hidrat
geliyordu
alınabilir
taner
##cıoğlu
stadyum
gerçeğe
sesle
biçiminde
bırakmış
müfre
##emeyeceğini
kıvr
##a’nın
coğrafy
edersiniz
##diz
aktivite
kaçış
çıkmasına
##ision
savunu
bugünlerde
kapasiteli
atanan
bilhassa
##dio
bahçelievler
akhisar
işlevsel
yetişen
hayatımın
##star
aralıklarla
erkeklere
##ql
kuaför
bilirk
beklentileri
antal
##iyes
konuşurken
##lıoğlu
##bra
cemiyeti
aff
your
yarışmaya
evlerine
sindirim
indirmek
atv
##77
üstünlüğü
tö
##jet
##memizi
izlemeye
tamamlanan
çocuklarla
bostan
sovyetler
##ünüzde
sağlamış
karton
yararına
teyit
##tane
##jer
önceleri
##taz
taks
üniversitelerin
çalışacağız
gökçe
müstak
yurdu
##binin
yönetimindeki
yakalama
yüzleş
takas
türkiyenin
kura
mantığı
bulabilir
hiçbiri
yýl
taslak
dediğini
##zaj
hususlar
azar
dinler
doğmuş
##eğmen
açılıyor
işçinin
şefi
ekleme
dönmüş
bölgelere
buzdolabı
raporunda
##ebe
gürült
tekrardan
ortama
dille
kırıklığına
medeni
heyecanla
kolesterol
mutluyum
tanımlanan
köpeği
##salar
düşünüyordum
mücev
işlerde
alanını
içeriyor
kulesi
##iyetle
odtü
değerinin
inceleyerek
olmakta
yöne
dağları
planlar
yansıtan
fiyatlı
titreş
yaratıyor
pur
farklılıklar
gönderilir
oğlan
akıntı
derya
tasdik
geçirme
##ansal
sağlaması
imp
söylediğim
danışmanlığı
oyununu
esad
kişiyle
##temiz
ahiret
uyguladığı
gerekiyorsa
fragman
tutarlı
azaltı
##viv
müdürleri
nba
penis
toplantısına
##ebilme
emp
yatırımı
hakkının
belirler
çıkaracak
dop
tetkik
kalkar
kazım
##gız
doktoru
durgun
tolga
##tıkça
sürücüsü
taşımacılığı
kırşehir
tahamm
epi
2020
sünger
ayından
sağanak
lerde
çankırı
aralar
pah
askerlerin
beklerken
benimsem
##dırma
grubuna
##þý
zinciri
kaset
##emezsiniz
kayın
cildin
yeraltı
kerkük
eczacı
##trik
sesler
##ock
##53
hard
davalı
##cc
sorunlarına
taviz
içerikli
hataları
satışları
maçına
kapıdan
tehlikesi
##ülüğü
tanıklık
maddede
hurda
##yın
auto
exp
bilinci
talip
mühendisleri
enver
serü
olunan
molekül
##’teki
ulaşabilir
muhatap
daimi
##leştirmek
endişeler
portalı
##raj
paragraf
ayıran
çiv
yans
yığın
lâ
yasadışı
umudu
neb
jin
##lıyordu
müess
favor
kolej
##44
gözünü
mücadeleye
ikisinin
##eller
faaliyetlerinin
kişilerde
harekatı
bekar
hacet
ejder
##iyeye
örüm
öğrendik
hesapları
alınmasını
anlatılan
pislik
klavye
asay
polik
girmeden
hırs
yüksektir
eger
karşılaşacak
filtre
mümin
söyleyin
i̇ler
modelini
etmen
##ûlullah
tadına
çarptı
alkollü
##leri̇n
oyu
mutfağı
şartlarına
tatile
üniversitemiz
burslu
kayda
yapacakları
filmini
kesici
kurak
açıklık
fiili
kl
zevkli
başkalarına
özgüven
lara
inin
fikrini
sonuçlarının
bolca
kazandıran
ahlâ
##ms
konuşmayı
rahip
katına
belirlenmiştir
##war
yapmıştı
birisinin
fesh
yıldızlar
söylemem
kalmasını
çıkarsa
charlie
açıklamasını
##nat
uçağın
##uluğ
dilini
ölümsüz
“ne
başkaları
sâ
adamım
taşıyacak
kaynat
taleplerini
kırıkkale
nesne
beklentisi
hoşgel
sempozyum
alabilmek
iyim
zıp
seçimlerin
akvar
formunu
bartın
kurumlarının
##ımızla
vereceğini
konuştuğ
philip
##ilmesinden
senesinde
alacağız
##amın
arkadaşının
eskort
yarımada
yasemin
aksam
kostüm
##oksit
ifadeler
kürtler
hastaya
seçerek
over
alin
##mezler
kategoriler
aro
##emeyeceği
kişilerle
öğretmenlik
ideolojik
filo
noktalar
şüphelen
etkileşim
geçtikten
##otu
ibr
yollarla
sahibine
servisleri
kıyafetleri
“o
##iymiş
ilgilenen
koruması
faks
firmalara
nüfusunun
golle
erotik
söylüyorlar
bitmiş
henry
skandal
makarna
sera
yaşadıklarını
##ıldıktan
şiddete
pişirin
turnuvası
nota
istediğimi
sendro
araca
eşyalar
##cağınızı
sonda
plaket
tartışmaya
altun
grupların
kontör
##ilmeyen
diploma
istiyordu
nerden
özürlü
makinaları
##eğinden
işver
kamerası
hukukun
tasfiye
piknik
berabere
anat
şiddeti
cent
fuat
ihtiyaçlarına
altıncı
maymun
yolculuğu
##nie
roket
##uri
kursiy
cidden
hamza
raporları
##dirme
kabiliyet
uzunluk
derecesi
verilecektir
5000
değiller
alaş
##lekli
çarpan
bordo
yanık
##onomi
oluşması
dindar
ekiplerinin
okuduğum
gücün
biyoloji
formula
zom
sorul
barbar
bulunduğunuz
manavgat
dı
köfte
sitelerinde
yöneten
##’dır
ağzından
bölümün
geriledi
püskür
başkasının
fox
yapabiliriz
zıt
elverişli
paylaştığı
##ordu
müslüm
bayanların
tri
ölçüt
irtibata
tl’ye
çabası
sağlığ
cans
görkemli
##31
zamanların
##teyim
##larlar
evlerinde
bayi
sunumu
bahan
basında
diger
memnuniyetini
##laman
##dığınızı
trip
ehli
kuk
katılıyor
haftalarda
etmektir
kong
jer
sporları
görevde
ebe
nah
getirmiştir
##iliğine
tasavvuf
kabullen
“an
##iyeri
iktidarın
seda
nilüfer
cildi
##ibe
ergün
tahıl
kuşadası
saldırıları
özü
öğrencilerimiz
aşağıdak
karakol
planlı
hissettim
mucize
intikal
şimdilerde
##eyiz
saklama
yönüyle
maaşı
bırakacak
değirmen
vik
turuncu
##bilim
##andan
cömer
evini
oros
i̇mza
düşünülen
##rahman
miktarını
##vantaj
##mayacağım
ağzı
are
metrekarelik
##bus
savcılık
tabur
mama
ateşe
##ath
başkanvekili
kocası
kadrosuna
##geb
çalıştığım
riba
kaçtı
##konusu
geçirilmesi
üretime
##ehan
kafasını
tabip
sunmaya
##lanmasının
üretimini
ülkemizi
love
joe
masaüstü
i̇kincisi
##eköy
boncuk
finalde
meteoroloji
##’ndaki
finland
rakamlar
aktara
çıkmıştı
önerilen
sağlığına
kaynaklarının
bırakılan
toprakları
##lamıştı
##dinin
twe
bulunmadığını
vinç
tuzlu
##şener
##kestr
etmeli
##arch
eğitimine
kardeşlik
askıya
gözaltı
##eyecektir
düzensiz
incelenmesi
yalıt
almanya’da
fonksiyonu
magn
##mıs
kısalt
adresinde
##ayip
ilacı
oluşumu
yapabileceğiniz
##latmak
pier
dediğin
bugünün
verdiklerini
gazetecilik
##laşır
##iller
pub
uyuy
edenlerin
veysel
mukad
eller
paylaşan
demeç
##törü
orkestr
##ülin
yapıların
sebepten
yönetmenliğini
alanlarının
şölen
##lali
##hr
fbi
galak
##eğimiz
çocuklarımızın
sendromu
wik
piyasasında
üzücü
amerika’da
more
daniel
takımını
sunuyorum
mesleği
pazarında
##oç
kullanabileceğiniz
konyaspor
##akip
elinizde
başkanlığını
##olasyon
aradım
tarık
allahü
binasında
güce
edilmişti
hazretleri
kimliğini
gelişimini
gösteriş
gab
united
“i̇n
afiş
siste
cro
tahrip
renkte
kolye
anki
ece
bırakıyor
##sah
aralıksız
olalım
ekonomiye
##uşu
tuncay
##burt
##üsünden
00’da
teles
bavul
simdi
kn
##mamalıdır
şahsi
tedaviye
hediyesi
arabası
deð
##rian
siparişi
katılımcılar
yayına
hikâye
cy
hitler
gitmem
aralığında
bildiri
allah’tan
erim
bedelini
görüşmelerde
verelim
dahili
gizlice
gasp
binaların
metot
##bih
##86
##landığında
deza
##eto
tony
isimlerinden
##lileri
gazetecilere
##lüğünün
salonda
mazlum
##çılığı
##tiğine
mi̇l
girerken
sinek
götürdü
saniyede
maçlar
topçu
edine
diledi
##larınca
eklendi
nedenini
##âk
başlarına
sınırlarını
firmalarının
desi
##söz
##ladim
##bilme
beyefen
arttığı
cop
kullandım
sihirli
kullanıldı
will
meli
zorunluluk
uygulamaların
geceyi
tutulur
ürünlere
sözkonusu
maksa
cömert
lü
##irdi
döşeme
trafiğe
tadilat
havuç
##emiyoruz
fiat
bazılarının
##aslan
bayanım
emret
başkasına
çip
iddiası
verebilecek
karbonhidrat
işlere
yakup
duyma
mikrop
seçimlere
seçiminde
affed
malzemelerin
##ule
zannet
akre
osmaniye
yiyen
##dığımızı
çağlayan
laboratuar
katılımcıların
korunma
abdülham
iğn
bkz
çember
ilişkilendir
bileşik
oluşturulmuş
dezavantaj
hâlinde
oluşmuş
##laştığı
kaynaklardan
amaçları
düzenlenmiş
sonucunu
marş
belirlenecek
mücevher
sup
davacı
sanatçılar
cesedi
pırıl
tabaka
ödenecek
garaj
harici
zenginlik
##cý
gözlü
dokunuş
akbank
venedik
alık
değiştirilmesi
bari
ölçme
yiye
geçmiştir
ipek
şebekesi
store
turizmi
##db
##ves
geminin
yollardan
necdet
dsp
hergün
anasayfa
harun
çimento
moğ
uysal
benimsen
gps
belirsizlik
##ue
kapının
görüşünü
yaparız
arena
yürüyüşü
said
hazırlamış
çağı
talat
##ramanı
yatakta
zorlaştır
yapıcı
şaşırt
oynarken
##ст
mehmed
##enni
##iko
##ilmeden
gaf
mahalli
kompozisyon
##ebilirsin
hızlıca
defans
gidermek
susuz
öngören
çubu
##trol
##vas
kamil
##üyorum
hareketin
##hy
sorusunu
arkaya
tura
sınırlandır
##oş
havadan
elime
verildiğini
akşener
kırış
##kov
hediyelik
sevdiğiniz
etkinliğe
kılavuzu
müvekkil
suyla
kurtulmuş
##ürt
sağlanacak
devletlerin
halep
dizisinin
tuttuğ
prat
tabanca
katolik
amazon
dengesiz
belirleyici
##açık
stratejisi
amacına
filme
olanakları
color
yaşadığım
söylediğini
duvarı
kullanıcılarına
programlarına
yarıyıl
silivri
##zade
belle
##ndan
başarıyı
sihir
terapi
##leştirilmiş
taraftarı
kıskanç
##riz
soygun
dostlar
##diyse
izleri
##sene
çıktığında
diyenler
yetkilisi
kültürünü
verilerek
##ado
millete
##layacağım
inkâr
##fabr
zehirli
kalsın
kaynaklanıyor
zayıflama
##subay
medikal
alanlarına
sevgisi
niy
iyimser
viet
taşınması
bilmiyoruz
olabilirdi
oldun
##i’nin
##günü
yayınlar
101
doyur
gerekebilir
azalır
##kam
##ılacağı
##male
önü
hatice
ülkesinin
köpük
##kele
garson
##amayacak
kremi
şarttır
olasılı
ergin
getirin
duruşma
fiber
kalmayı
parasal
kırıl
sorunlarının
moğol
yılındaki
konuşmacı
telsiz
futbolu
şirketimiz
üstünlük
girmiştir
ulaştığı
yapacağımız
katta
ilerliyor
eta
sanıyorum
büyüle
konservat
istikrarlı
imzalı
güçlerin
##taraf
gündemine
##ings
hastalığa
kalmıştı
üniversitesi’nde
osb
internete
başört
görünmüyor
uygulamasına
paneli
gerginlik
##elerdeki
##beyli
beg
buyurdu
##lid
yasama
geçmişten
seyirc
üssü
sayfaları
wa
silahlar
salat
##ink
zap
cumhuriyetin
yanıtını
fıkrası
anlatacak
##ðu
kraliyet
##dut
devi
yakaladı
abdest
tercüman
tasarımcı
akrep
gençleri
hisseder
##iyye
şerbet
##km
süreçleri
kürtçe
ayakları
özdeş
kuruluna
ödüllü
mekanizma
utanç
ai̇h
çıkınca
##ıncaya
güveni
fikrim
büyümesi
dc
bittikten
belirlem
##duğundan
iyileşme
başlatıldı
##mith
iğrenç
isteyenlere
yükseklik
##ilmekte
evlerde
notları
fars
kontrolünü
rastgele
füze
ünitesi
aşkına
peygamberimiz
house
bedensel
giderler
’nin
##boy
dosyasını
128
saldırılar
sorulan
##̇r
##cük
ısrarla
##elerce
çevren
evlenmek
arabanın
##elerimiz
arttığını
kaybolan
##dığımızda
##lâh
##bahç
iflas
suları
kültürünün
liv
hidrol
##ditasyon
kireç
bayburt
verirler
yöntemle
tasarımlar
ödemeleri
##ila
indirme
zabı
maçtan
ortaklaşa
patlı
türkleri
tasarlanmıştır
bayraktar
sağlanmaktadır
##acaklar
##iliğinin
boşuna
taşıyıcı
ebat
çalışıp
muzaf
kolaydır
ürdün
read
##hon
kazanmıştır
##lerimle
fırsatlar
##sunu
tekerlekli
telefonlar
üretiminin
jun
ortod
yaşındayım
##yuz
##lenmesini
##atik
başlangıc
araştırmacılar
##cılığa
sapta
##çok
arkasındaki
kahramanı
##sindeki
şahane
ucuza
eğitimli
sitesini
dogru
işleyiş
##iyetin
belediyenin
zaferi
tatar
emisyon
yanıtı
incelemelerde
##kül
nobel
düşünmüyorum
suçlar
hammad
parayla
hile
cenk
720
i̇kili
liter
sürt
önleme
tamamının
yazımız
neşeli
kaynakların
sümer
##mark
cisim
şikayetçi
müteahhit
##ahan
gündemi
ilinin
yapılışı
smart
algılama
tezah
doruk
##evî
suresi
kırgız
düşme
piyasalar
durumdadır
yapman
kola
markaların
üyelerinden
yayında
aksesuarları
yürüme
inancı
başlayınca
taraftarlar
##tığına
yitirdi
##omen
##âzım
calis
işlenen
yapımında
ayrılmak
##ılmasından
esra
##our
gezgin
iptali
i̇ktidar
gitmiyor
sorunlu
##emon
cup
hacim
olursun
antep
ikisini
kırklar
veririm
delikanlı
tonu
takma
şirkete
tahsi
devret
getirdim
uygunluk
uğramış
faaliyeti
##yıldı
yatırımcılar
kafası
baktı
merve
menz
kışkır
##latör
modellerini
seferde
nemli
siyasetin
itibari
buluşan
işletmelerin
##lenmeye
brüt
mirası
sayan
yenilenebilir
arkadaşların
işleminin
denizin
sürül
##39
i̇li
almayan
simgesi
bilmiyordum
dokuma
##mezse
başlarken
temelini
aykut
elleri
saatten
likit
##zo
eldiven
##iğinde
deniyor
esnada
memurları
gösterebilir
numarasını
ötek
sıralar
dönme
etkiliyor
erhan
vites
##kö
cezay
askerin
edeyim
bölgeden
çatısı
yıldönüm
başladığında
##die
getirmesi
faizi
##dükleri
törene
okuyun
orgazm
azı
haftadır
müziğin
hücreleri
agr
öldüğünü
varlıklar
pazara
shop
ailesini
aslına
liderleri
spot
çerkez
##donez
buranın
işlemlerinde
ال
ülker
düşünüp
sekilde
hida
parçacık
verimliliği
ölçek
kampanyaları
seviyesini
bahane
francis
excel
küba
muzaffer
dilinde
gümüşhane
##kit
bark
artik
üş
kategoride
mensubu
anlayacak
rengini
yazlık
emel
komple
mensuplarının
istasyonu
ulaşımı
anısına
##bia
hazırlanır
ikimiz
öylece
kaybına
ayık
toh
mürekk
yaratır
istiş
söylemiştim
##еr
boğa
iltihap
185
husu
altan
##ağının
mola
öğrenmeye
mukav
domain
montajı
##ilmemesi
karşılaştık
2023
##nia
haykır
parke
severler
akut
sunulması
görüşmesi
mt
alacaklar
reyting
manchester
yüzünde
güçsüz
1979
varmı
##formasyon
lord
tavşan
anlaştı
fert
tff
basarak
edinmek
##ico
karp
etapta
korkuyor
kullanmanız
topa
köft
baha
tercüm
tk
çağırdı
neydi
belirlediği
##enizde
brun
jones
ciz
kütle
kardiy
koşullarına
etiketi
söylenebilir
##mayınca
mevlüt
karas
okumuş
zabıta
ekonomide
samsunspor
sembolü
hikayeler
doğrudur
##leksi
uzunluğunda
işlevi
##arız
pit
lcd
öneme
resepsiyon
tişört
anlaşmanın
##layet
gizle
gelse
siteyi
hamdi
##hol
belirledi
açik
kullanılmaya
once
hamuru
3000
cephesi
yeh
evlerin
boyutta
asayiş
i̇kiz
##esan
bilgili
##venin
cık
1981
fotoğrafını
bölüme
##ardı
edebiliriz
“ev
sonrada
turkey
teras
tezahür
çıkmadan
çilek
indirimi
deği̇
bob
endonez
etrafta
olanın
pozisyonda
sabahı
##’yla
##onlar
soruşturması
##key
uykusuz
european
sağlayabilir
sonuçlandır
##umdan
manzar
yönetimini
##ptom
paydaş
çekilmesi
üretimin
arkası
öğrencilerimizin
gösterdiğini
put
eserin
##organ
kendilerinden
kesilen
çinli
bakteri
220
hos
durmadan
##esco
şeklini
phot
belirtilmiştir
alırlar
li̇
##hun
life
yaşadım
hayatımı
kızının
sakinleri
arınç
fincan
bbc
dikkatleri
##ilirse
detaylara
börek
edince
kapatmak
##sıyla
aralığı
piya
takımına
sıfatı
yerinin
onlarda
hikayesini
hakkın
dönecek
##mazsınız
drama
dolduran
muydu
düşünceleri
yetiştirmek
türkiyede
felç
##ozof
davetiye
bahsetmek
bürokras
astsubay
##uch
merkezlerinde
üreme
kazanması
##liğimiz
cinsinden
çekmiş
dp
##38
rabbim
dağıtımı
mine
fıkrasının
##enizin
poker
music
tamamlamak
vietnam
intel
dakikalar
zirveye
tanışmak
##kaz
##itz
düzenlemesi
istiyordum
geciktir
yaşanacak
değiştiren
fotograf
cihazların
güneyinde
etmişlerdir
başlanan
gezen
saraç
damgasını
dosyayı
ziyaretinde
gelişmelere
balkanlar
bru
edebiliyor
yoga
entegrasyon
jes
tunus
karşıla
tanıya
bilirim
kazanmaya
katli
##mazsın
dolma
deposu
biliyordu
i̇zmir’de
barzan
anayasal
kullanması
mudur
binada
saatlerce
kaldırım
seviyesinin
çoğunun
antalyaspor
sürüldü
çizdi
örümcek
##raft
yaratma
les
kirp
öldürmeye
tabanı
yatırımcıların
görebilir
class
cle
etkilenen
ki̇
dokusu
süslü
karşılan
rezil
telafi
##egöl
clin
puana
kw
##masındaki
yerlerinden
##çılı
yeryüzünde
efekt
savaşları
namus
halkımızın
##37
yakının
riske
geçme
güvencesi
cav
##bn
pazarda
arabul
yazılır
div
##acağımız
azaltır
yapılmak
dolayısı
katılmış
yaygınlaştır
gözüyle
değilmiş
sanayic
temelli
ankaragücü
piyasalarda
istekleri
derinden
geçiriyor
asıllı
yetiştirme
jel
üvey
yanan
etmeyecek
turda
çıldır
##onsol
akımı
semih
##dad
ilkeleri
bölümden
alim
fıs
mahkemenin
ortaöğretim
evdeki
ebed
yalancı
erkekleri
##üret
audi
##kiye
ulusoy
duyu
habersiz
mamul
cezaevinde
##eddin
davranışlar
ciğer
bakınca
##ceğini
##kala
çocuğunu
nüs
kafasına
kalabalı
duyduğunu
araçlarının
sellem
şant
##field
sevdiğini
performansını
##enekon
##dex
işlerine
system
çorbası
herkesten
ülkemizdeki
##oksidan
##ng
söyledin
anlaşılıyor
yazımda
kesiş
liderler
finlandiya
kurula
uyanık
konseri
i̇şe
binden
ekşi
sanığın
britanya
döng
fantastik
107
telaş
çalıştıklarını
dinleyi
adliye
##sev
katled
pekâlâ
münasebet
kızla
sayılmaz
“allah
koştur
yahya
milyona
##lamalı
topladı
kolaylığı
müşterek
genc
nay
yy
semptom
##okal
başarısını
veriyorlar
etmelisiniz
##oya
iklimi
tamamlanmış
temenni
basıncı
ayarı
lpg
koltuğu
##try
topal
tazminatı
metrelik
##deleri
serisinin
##imdir
yokken
topraklarda
ucunda
##madılar
dayanak
götürmek
birbirimizi
ülkü
acayip
metropol
karım
stabil
##ille
eklent
vekalet
rusya’nın
oturdu
##ugh
i̇tü
kasap
protez
aygıt
girne
sporcular
tahammül
sürerken
dara
ulaşma
işlemci
yaşanmış
prefabr
aştı
yatağa
adaya
vasıf
##ledik
söylerken
otoyol
kanıtı
##beş
diri
bankaya
akça
çantası
pala
dengel
mültec
başsağ
konuşul
otu
olmasıyla
cinsi
##urlar
hamas
sözleriyle
##ture
isimlerini
döndüğ
anormal
seçeneğini
yurtdışına
tahlil
sül
matt
from
hazırlıkları
birisini
kırtas
ntv
necati
teknolojiyi
çabaları
şampiyonluğu
kademe
taşıdı
hidayet
gelelim
âşık
esenyurt
cocuk
##tanı
ablam
antioksidan
aln
cenev
kılmak
##ırdı
tecrübesi
##ilince
hist
uğradı
nazaran
adanın
tüs
filistinli
yaman
üf
kapılar
##verdi
lere
ısınma
tembel
kur’ân
saldırının
başlayın
yamaç
taşları
soyadı
kurumlara
##lülük
##elerindeki
kamuoyunda
sempat
şekillerde
yiyecekler
saint
yatıyor
biletleri
açıklamak
ünite
##eleyen
##enha
partil
bik
saçlı
gaziler
##elisiniz
bıraktım
##ünikasyon
olanlardan
yetkililerin
que
imzaladı
bilgilerine
fotoğraflarını
elin
taba
gördükleri
##65
kraliçe
müşterinin
##laştırılmış
dilin
çizel
öğretmenin
evl
kente
görevliler
düzeye
istifade
birilerinin
kamusal
kuvvetler
##işan
flaş
##furt
alacağını
##oğulları
erkeği
kısmından
melik
dükkân
##abilirim
##lerek
kodları
kuralı
koyma
##ezz
alınma
donanımlı
militan
cur
yöneticiliği
buluşacak
civarı
dolgun
istendi
kahka
filozof
nevzat
ıslah
##çıların
aileye
malta
uygulamasının
bağcılar
fonksiyonel
anestezi
bozkurt
##sche
takviye
##vay
hazırladı
seferleri
i̇ktisadi
şarkıyı
nedenlerden
sað
koşullarında
amaçlar
##üste
bud
tapına
1978
sürenin
gurbet
dalış
çark
görüşmelerin
ateşte
atölyesi
görebilmek
yönetime
##cısına
karşılaşmada
davayı
kriterleri
##meyeceğim
ortasına
##irsiniz
sitemize
yapısının
cinsellik
bakanlığın
bedeni
olmazdı
doçent
gencin
söylüyorsun
işinde
olmamasına
asma
yazdığım
##iþ
##yık
haberlerin
gerçekleşir
##cili
mekanı
trafiği
semin
yokmuş
i̇şi
köse
yazıyorum
sızdır
yemiş
kuyru
unsurları
becerileri
bosch
aktarmak
içerdiği
##asyonlar
duyuyoruz
maske
milletinin
fırsatta
bilgilerinin
kıyafetler
##all
##ydü
clar
çocuklarımız
##hab
atandı
ilaçları
yağma
kurumlarında
günümüzün
bakkal
başsavcı
##eni̇
karşılayan
belirtiler
edilmeli
##eliler
rütb
##fin
msn
##ımlı
##biber
suriye’de
##giniz
yapayım
geliştiren
serhat
adımlarla
##eli̇k
vereyim
kararla
ateşk
##cımız
düşünmüştüm
##banı
açıkladığı
sempozyumu
##mışlardır
kiloda
alda
mahsus
taşınır
##seydim
info
oluşturacak
i̇tha
##dört
##ito
bulması
işlerinde
prodük
##akı
gerekmiyor
yanlarında
başkonsol
golden
yardımcılığı
gitsin
hong
şunlardır
evrenin
elec
projesinde
pvc
tavrı
sıla
##laşmanın
yugos
yavr
send
##laha
birikimi
hastaları
alacaktır
##ã¶
uza
##lr
sivri
##iyeleri
isteyecek
gideri
önerg
zenci
ilişkilerinin
büyümeye
anlayan
sebebiyet
idrak
sınıfa
başkanının
doğduğu
ilgilidir
konulardan
hizmetlerinden
##ya’da
münih
115
düzenlemeleri
##lap
unesco
projesini
denizde
psikoloj
tanır
sosyo
akvaryum
sarma
hekimliği
bmw
barda
##âd
yörün
bağımlılık
çelen
iadesi
##uzda
yöntemiyle
kullanıcısı
koleksiyonu
etkileyecek
toprağı
##saydı
comp
alerj
##eledi
altındadır
soran
nut
açıklar
savunuyor
hissediyor
eserlerin
##cor
##cial
maksat
diliyoruz
gelişimine
arist
##ýlý
basar
yatırımların
eğr
değiştirdi
##lamasıyla
saçları
sistemiyle
savaştan
ein
koktey
hakikaten
##îr
erciyes
##ımızdaki
toplandı
izledim
müşterileri
uzer
çıktım
inek
##lendirmek
suçları
şartlarını
rahmetli
vin
hidrolik
amiral
enjeksiyon
tutuklama
tarife
anlatımı
got
fiilen
kürsü
borçlar
yugoslav
bilal
çekecek
##eşme
espr
##orth
getirilmiş
uslu
hacettepe
ilkesi
modem
1975
##âde
başsağlığı
yararı
reut
maliyetleri
lut
yerlerin
bulantı
mâ
siyaseti
yatırma
hilmi
besinler
ög
kadroya
kafayı
bütünleş
adamların
yarışmada
yollara
önyar
ulaşır
atlas
cun
malesef
klini
leke
##sky
kanunda
##eks
fazilet
kısmi
##ов
unsurlar
##ен
dönemini
arkadaşlarıyla
teorisi
dinleyen
futbolcunun
akıncı
dövme
tahakkuk
çör
tutu
işçilik
dama
maçlarda
##ûn
teçh
çoğunu
keyifle
telekomünikasyon
##cks
pozisyonu
çağlar
surviv
anlattığı
##88
noktalara
evimde
##ier
umum
bakmayın
kıran
koruyor
gösterme
işlemin
i̇htiyaç
noktayı
gezisi
ettiren
meri
##ekkül
iktisadi
olmalarını
havalandırma
kapa
yapıyorsunuz
##tia
istina
sürdürmek
dolaşan
abart
geçenlerde
gerektirdiği
kavşa
rolünü
##gh
‘b
çalışmasına
uzaklıktadır
geliştirmeye
yansıyan
girişinde
aldın
berber
yaşın
1973
sahnesi
hün
##asyonel
bent
katarak
kolom
çalışıyordu
##ladığım
satılıyor
hükümlü
çıkacaktır
tayland
öncülük
kaçmak
takımında
tamamlamış
##rasya
total
işimiz
busin
##idge
cadı
erişimi
vurul
geçmeye
istediler
##melere
##ous
basılı
##amadığı
kalktı
çağrısında
##bül
önems
karşılaştırma
yasalar
tutmuş
etmemek
##ılacağını
periyot
cilde
spe
incit
bulvarı
eşdeğer
hastal
ergenekon
yayınlanacak
yaşarken
kokulu
enstrüman
ruj
yahudiler
baf
bizlerin
iftira
açmaya
uğraşan
geçirdim
yek
uğraşıyor
çıkmadı
dizisinde
bulacaksınız
smith
yaşlarında
sağlamaktır
bağlantıları
##iraj
literatür
uyarısı
beklenti
değerlerin
bütçesi
bağlamında
değerleme
##üse
kabulü
aklını
teçhiz
##urdu
karınca
##ああああ
metn
ash
anak
00’de
ölecek
hastalıklara
testler
vizyona
merkel
yakalaya
alo
kanunla
tuzu
doğaya
ncı
##ağan
görerek
sansür
dengesi
##ydu
şehirlerde
##bosna
yandaş
yayınlan
ub
##’lu
kapattı
hepiniz
##ümden
düzenley
büyükelçiliği
reçet
uygulayan
çiller
ibaresi
102
deaş
sabri
abdurrahman
bakıcı
inanın
i̇malat
kombine
eð
istemiyoruz
fiyatlara
şeyle
kütüphanesi
gittiğimiz
sezen
yalvar
felsefesi
kama
buydu
inceleyen
geçişi
titizlikle
arpa
işlenmiş
egz
altyazılı
gitmeyi
saatinde
pürüzsüz
##amıyoruz
belirtildiği
mumcu
kategorisi
uyumu
anaokulu
nesli
beğendim
ettirmek
koşan
##end
lö
dubai
##ektör
fazladan
katılması
ferdi
dekorasyonu
kesip
üreticiler
yarıya
##ığı
tahminleri
kampı
fitness
##labilecek
baca
boyutları
ülkelerinden
yazarken
siyasete
kavan
çayır
prag
##py
sığır
derneğin
zorundayım
yapsın
##49
bilgisine
çeyreğinde
konusunun
düzene
bölücü
alıştır
günay
tarsus
vatandaşlık
seçip
hasat
i̇dlib
ilaçların
savcısı
high
battan
##tiyaz
düşünüyorsanız
istinaden
muamele
çiftçiler
sum
dig
üstünden
bilincinde
derseniz
tuttuğu
alırım
salonları
##off
ferhat
yapmalı
anna
yaşamayı
izlenen
light
desteklenmesi
##tici
business
clo
adada
tempo
##acaksınız
müzikal
paraları
kadrosunda
poly
kızdır
patlıcan
etkisinin
##yonun
ürüne
oğlunu
havalı
edilmesinin
sahaf
##miye
ölmek
tablos
##mızı
akp’nin
önleyici
karşılaştığı
hosting
fıstık
oluyorlar
evinize
çevresine
gerçekleştirilmesi
malatyaspor
tüzük
kulağa
zara
bozuklukları
fırtın
paketleme
brezilyalı
work
kırklareli
müslim
kosgeb
çağın
özelliklerinden
gübre
edileceği
askerî
ome
ihtiyar
mahallesi’nde
murad
zırhlı
yapıyordu
i̇ktisat
##atlar
ekolojik
insanlığa
hızını
umutsuz
genişleme
##aket
ülkesine
eksper
##damı
otor
attım
##mud
denedim
ideoloj
işkenc
ork
elinize
##yici
##100
komplo
i̇skoç
##teb
keder
çocuğunun
olabilmesi
organları
yard
etmeliyiz
döl
tanıtmak
yanıma
araçta
##mayanlar
eleştiriler
hobi
komplik
dizin
ettiniz
216
veliler
bilgilerinizi
##kanlı
##haz
acilen
kamuoyunun
kürtlerin
bulunduran
sürerek
oluşabilecek
##şu
kıyısında
##ojen
inen
##eyeceğini
toplanması
kırıklığı
çalışmalarımız
##ix
##ern
unvanı
örtüsü
kilometrelik
balta
olmalısınız
manzarası
kazanı
kazandırmak
tahran
##kol
yaşandığını
gökç
yakınlarına
gerisinde
portal
cra
tesisatı
colle
soyad
notlar
öneririm
sakal
##muyorum
günlerin
bakanlığına
aleti
kapsar
tutuş
inşaatı
ordunun
mekanda
eylemleri
che
hâlde
bilmeden
vakıflar
ly
cansız
edersin
götürüyor
tüketiciler
dönüşt
street
##ürek
i̇de
güzellikleri
çalışmıyor
kuşlar
babasını
kayserispor
sağlanmış
##mıştık
sonunu
rakamları
muhtelif
kesen
ai̇hm
mümkünse
kaybetmeden
demiştim
diyetisyen
pankart
##üzel
shar
kullanıcıya
kavuştu
firmaya
yararlanarak
peyzaj
yollarda
melih
##stir
işadamı
##lendiğini
dökün
oluştuğu
##doğdu
ücretin
##isiyat
içimde
tahir
kuyum
yaralanma
##livan
steve
sefa
vermeyecek
getirilmiştir
yapra
döneminden
gerekti
tertip
varış
gelecekteki
müteakip
kızını
##lerinizle
keman
faal
sektöründeki
maria
mız
##lamaktan
sürey
eklenmiştir
adamlarının
biriyim
arkeoloji
gübr
##öf
tahs
miktarının
i̇tir
##lemeler
##cle
oranın
görünümlü
##42
##rov
##amanız
taşınabilir
##jin
işitme
##bileceğimiz
hafifçe
izleyici
reuters
klor
kalmamış
zarfında
büyüktür
##pool
beraat
ardına
öğrenen
dre
suat
avrasya
taşlar
orospu
daireler
buradayım
##viz
bozan
sandığı
hotels
şura
moz
adaylığı
ayağ
maydan
tanımlama
bern
1930
dolardan
kullanıcılarının
##аn
##selam
hücreler
lisansüstü
1977
i̇fa
uygulaya
##vatan
vermesini
kısımda
kimisi
cümleler
##px
digitürk
değişmesi
akabinde
düşecek
adaylarının
başındaki
kaynar
rat
uzatma
laptop
hocası
malın
atalay
i̇şa
##özü
durdurmak
##ague
fenerbahç
i̇çi
bebeklerin
ömürlü
davasında
dinley
mazeret
çorlu
girdik
ngc
edeceksiniz
fetih
mf
##âlet
hakkin
sürdürmektedir
##iyetine
i̇negöl
bakınız
takımımız
olmaktır
##ded
seçmeli
kapandı
şartnam
175
düşündüğü
cs
##vent
getirilir
döngü
sers
küçüm
##guna
##eliyiz
##ild
iyiydi
fc
odanın
destekliyor
##lüğünde
##еn
tokyo
##adok
##meyecektir
parlamenter
adaları
##edikleri
sıh
çelişk
##â½
adresleri
kullandığım
göndererek
müfredat
girdiğini
homo
karsi
gerçekleştirebilirsiniz
##ozan
hazırladığımız
yaparsanız
arg
illerde
yün
urfa
ilişkiyi
arıyorsanız
vuk
maksadı
düşünmeden
dinsel
almam
kelep
sofr
yürütmek
yanlısı
kaçırma
içeriğ
30’da
gözünde
tapınak
anlaşmalı
##oke
silme
sunarak
almasına
gönderilmesi
cezayir
cinayeti
vatandaşlarımız
##ск
i̇stihbarat
geçmesine
dışar
çene
boylu
çete
toprağın
endonezya
##bileceksiniz
yönlendirme
yanma
bilgisayarı
dene
oturmuş
öncesinden
öğrenmiş
kavramlar
öncülüğünde
askere
gönderir
hatırlatarak
beach
izlenmiştir
maydanoz
yakışır
raporlar
fid
hepsine
single
guru
yazarları
etrafı
##dakiler
bang
yapılanma
gereğini
müşteriye
emsal
bugünden
olmamalı
resulullah
##unk
edeceklerini
##’ların
yetkilendir
cv
artmasına
hekimi
üzerini
şampuan
muhafazakar
etmenizi
ayrılması
##uluğunu
hizmetlerine
kitaba
cezaevine
##hani
kaan
elbiseler
cüneyt
misafirler
135
tanıdığım
’’
gösterin
conn
değişime
##nis
bilgisayara
diya
##iyetinde
deger
kiralamak
boğazı
üretimine
segment
dayanış
hastalara
##abileceğiniz
geçirerek
istemedim
basım
sağlamıştır
planını
övgü
dinlendir
gerçekleştirecek
suçun
listeye
aileden
üstündeki
kest
lisanslı
değerlendirildi
pon
mescid
yuf
fıkrasında
konteyner
##dir”
##deli
prefabrik
edebilirim
kitabının
anlaşıl
makalemizde
mutluluğunu
ziyaretç
##ladıklarını
##yaya
open
pm
tanıdığı
1915
tereyağı
vermekten
yürüyerek
##liğimizi
##board
bakanlığı’nın
kullandır
kontrolünde
##lararası
hoparl
kollu
sınavları
cezaları
haberlere
seçimin
sefere
yasaları
sulh
toplar
sorununa
modelin
kaşıkçı
musul
kapatı
##ihaz
kardeşin
standartlarına
sayılar
azaltılması
çocuğunuzun
##lamanız
okundu
komite
verdin
iyiye
tesislerinde
##аr
fırlat
nca
stra
departman
isteğe
jeff
jackson
yoldaş
birliğine
terbiy
dünyasını
diplomat
bıça
engelleyen
bulamadım
birazcık
atılmış
sport
hukukçu
sektörel
oranına
##dö
başımıza
##latacak
oyundan
eşini
##apı
bencil
##ddk
geçirdik
zarara
##ırt
kesmek
akıcı
öldürme
katkıları
temizlemek
##nur
sonuçların
düştüğünü
tüsi̇ad
malların
küçücük
doğuştan
##zım
##ander
öğrenir
köpekler
hedefliyoruz
mahkemede
rahatsızlığı
binasının
ulaştık
sentetik
sabr
taliban
kaynaklarını
gt
mahkemece
serinin
1976
m²
sistematik
senede
üretken
silahla
arkadaşlarına
muva
103
oluşturarak
derecelendir
tutana
##hanesi
akü
##irin
bertaraf
forması
değilsiniz
##enhag
alacakları
##dalı
##atlı
refakat
silahları
durma
güvercin
cetvel
fast
kaydederek
fevzi
##til
okunan
muhammet
tamamıyla
esenler
lav
doğusunda
anlamış
beynin
peg
yağlar
kalırsa
kaldırılan
##bani
faşist
hastanesine
yedinci
##yıldız
düzeyine
sunuc
doğruyu
bilanço
avantajları
snap
sanatın
çıkarmış
sd
koyacak
##i̇yet
dolusu
1923
##eyeceği
söyleşi
atılım
konuşmaları
tutkun
girin
arabaya
yağışı
ayrılarak
mevk
azalması
masada
i̇thalat
kendimiz
kamuya
toplayıp
olmayıp
bddk
iline
##eman
büyüyor
gideceğim
sonlarında
mağlu
##lân
yükselme
##anızın
toyota
mobile
##nut
kadromuz
##dirim
saçlar
ürünlerde
tuğla
##â¿
katılımcılara
cnn
##¯â¿
geçirmez
louis
buluşuyor
##keli
fazıl
clinton
palet
kirlet
geçmektedir
kopenhag
yudum
##iydim
izlediği
fahri
anları
bezi
sporu
##lerimden
termo
bitirmek
mesih
keser
tahsilat
gerçekleştiği
##faş
alanlarını
sabahın
tatbik
yapılmalı
resimde
değerlere
##¯â¿â½
tatbikat
okumayı
sük
gerekçesi
örgütlerinin
gebe
çocukken
sitelerinin
örgütüne
##ardo
##cağında
poster
görünüme
kiracı
amaca
650
bombalı
istir
edilebilecek
uygur
marif
ilçesindeki
solo
mahv
zeytinburnu
sıva
tanımlar
news
blogger
sızıntı
doktorun
dinç
##ars
robin
şela
##ememesi
##stır
turistlerin
günaydın
sinemaya
getirmektedir
artmaktadır
paf
chris
doyum
gösterildi
kardeşinin
uğurlu
kafes
saniy
avlu
fail
kullanıp
param
olmayacağı
ödünç
yalıtımı
memleketi
##asta
götüren
yapacaklarını
fi̇
kazanın
anlaşıldı
tüketicilerin
anlaşılması
yarışmasında
tefsir
bara
bekleyin
damak
insanlarda
bayındırlık
tarzında
markaları
sırr
değerlendirmeye
çalışanlarına
kuzen
kazanılan
konuğu
ilişkinin
i̇sim
milletvekillerinin
moza
halkını
iğdır
kutladı
veriş
108
##estra
izolasyon
tutumu
eğilimi
esirg
##lip
televizyonda
birleşme
geçirmeye
olmadığının
avşar
halihaz
entelek
koruyacak
ötv
sağlandı
kaos
optimiz
kırtasiye
##prü
dâ
buyuk
mesajını
sevgilim
içeriğini
ulaşılabilir
106
sendrom
##evleri
desenli
çalışacağım
değişmez
çözme
saygısız
terfi
ayırmak
##biya
doya
sahibinden
işçileri
istikbal
good
motive
çocuğunuz
tck
madencilik
seçil
malları
projelere
okullara
dileğiyle
sci
sevmek
çıkarları
##i̇mi̇
dokunmatik
çekimleri
müşterilerimiz
işinin
çuval
batak
kalbini
istes
kurulunca
embr
i̇zm
stady
1971
yavaşça
alınmalıdır
resmini
anıms
farkla
##lerinizde
çevirdi
kirliliği
bazda
##ctor
gıdalar
gülüms
chica
altyapısı
ceyhan
zirvede
odan
sıkın
paketleri
lenf
takvimi
romat
çiçekleri
piram
mağazası
katılır
modelinin
sıralamasında
şahsın
meğer
oturduğu
desteklenen
yapmadı
bariyer
temelde
##bie
otobüsü
tezi
güçlerini
inanmak
##lemeleri
fred
##sayı
şirketlere
artmış
olsalar
soma
almanın
abiye
isimlerden
sorumluluğunu
bölünmüş
revizyon
gidilir
##ilmem
ezan
büyükelçi
##ümen
gerekirdi
cip
yanar
##şama
dut
mevz
düğüm
ihaleye
##erik
mevkiinde
obezite
isteniyor
##jo
refor
geçirir
##asyonları
çeviren
bakü
##meyeceği
tül
turn
yetecek
incele
emrah
ağzını
yılbaş
pano
kapatıp
başlayabilirsiniz
050
1972
hayattan
tevfik
##mi̇
söyleyeceğim
mağlubiyet
kullanmadan
cezasını
değişikliğe
ırkçı
diyorsunuz
fotoğrafçı
hanedan
kısmet
cumhurbaşkanımız
görmeden
planlanıyor
zararları
sıkıntıları
programlarının
aktarma
görüşler
yumuşat
i̇şlemleri
##ihan
yehova
wood
sinem
ismiyle
sayfasına
rapora
kararname
müşterilerinin
jac
yapmasına
##ğiniz
organı
tartışmaları
ekos
veritabanı
fs
kırılma
filip
karayolları
koray
etmediği
sermayenin
boks
taşkın
açıklıyor
lüz
imti
teknolojiye
tüketicinin
getirdiğini
berat
soruyorum
hortum
demirci
beslenen
birak
cerrahisi
saltan
geleceğine
geliyorum
brown
çalışmalarla
edebileceğiniz
ilerley
hayatımıza
ens
borcunu
halindeki
##memize
dengesini
##ual
dediğiniz
ayrımı
kadı
kurmay
haberini
koyul
mekanizması
##ünüzün
binin
yukar
url
nispeten
ünifor
##lenip
kulüpler
masrafları
üçüncüsü
kullanılabilecek
monitör
çokça
götürecek
ekin
i̇nci
televizyonu
tencereye
bucak
açılmıştır
temenn
##lot
eyaletinde
bakılırsa
piyade
varoluş
##’yle
kavramları
seve
toplantıları
araçla
##acaksın
geliştirerek
çıkarta
milyondan
##birlik
##ilebilmesi
konservatu
çaykur
chicago
##leşti
sıradaki
lale
etkiledi
tutarında
##olan
korum
dosyalar
##cılığın
acık
hizmetinde
halit
duydukları
##dırlar
i̇nceleme
temalı
survivor
çıkararak
değiştirildi
çalışılan
karakterini
anlayışını
##ä±r
çevrili
cook
araştırmanın
yapılandırma
akust
kalbin
ulaşıyor
vizesi
bulunup
öngörül
ekimi
mücadelesini
lige
gözetim
uzaklık
##bildiği
hedeflerine
dana
##ladıktan
gaziantepspor
##dünya
vural
aşiret
ang
inana
sistemlerinde
maraş
##tılır
rizespor
muhabirine
##43
içeriye
izleyic
kuruluşunun
##’üncü
takımlarından
bakmaya
geldiğimiz
kurup
görü
trop
##’nci
##risti
nazlı
550
kadim
hastalığının
antlaşması
operasyonlar
merm
konuşmalar
izinsiz
email
kızart
kavra
izlerini
huzuru
i̇şk
necip
travma
saklan
menajer
cü
1968
evinizin
mücadelesinde
izliyorsunuz
mutfakta
tif
yemekten
okuyarak
durun
yürümek
darp
patlat
kapıya
sebepleri
##anne
güzelce
##ğ
gelmesine
akk
imkânsız
entelektüel
tesisin
faaliyette
##out
müdürlüğünün
1967
##cad
dönüşür
saldırıyı
şablon
kapadok
mutabakat
desem
envan
senatör
##âtı
şansımız
dedikleri
bittiğinde
devral
düşündüğünü
listem
yaklaşıyor
i̇lkokul
düşünüyorsunuz
adalar
çıt
isterken
makaleler
arzusu
lisansı
anıtı
dayanır
müstakil
yolculuğa
loto
kebap
vurgulandı
kaydedilen
##çik
bulunul
##tihat
ağacın
nek
anlamıyorum
kapatılması
##ders
söyleyip
ızgara
saran
çaliş
bölgesinden
gösterilmiştir
zehra
solda
haklarında
pav
artırır
mahrem
##çiç
koydum
iletişimi
bilinmez
aralarındaki
akşamları
berk
mecliste
olsaydım
##oğlunun
tutuklanan
gününden
yaşamına
riskleri
sentez
ismin
bahseder
gazetenin
##oooo
eşyaların
hayatınızda
diğerine
sökü
sivasspor
sektördeki
askerlerinin
düzenlenir
anlaşmaz
fikrin
demiştir
merkezinden
paraz
sout
lys
##casına
sözcüğ
##mıyoruz
vajin
bulunuyordu
matbaa
edilmeye
yenilikler
bulduğunu
way
geçtim
kayısı
aşamasına
şartlara
numune
jane
i̇sten
yöneticilerinin
seçti
harcamaları
müsteşarı
##ikar
yeterlik
fethi
yanıtlayan
##lular
##üzyon
erecek
hüsnü
##üd
##i̇si̇
isteğ
ları
gösterileri
ayları
dayak
yapabileceği
olasılık
boston
çevrede
özgürce
taşıdığını
şiddetin
olm
çaldı
was
duymuş
tanesini
sait
##chen
##düğüm
havayolları
kimileri
cemiyet
tükür
duyduk
yapý
nüfuz
##er’in
tanrı’nın
açılma
yükümlüdür
chp’nin
game
duyduğumuz
##liliğinin
##otel
hafiflet
önemsiz
ergenlik
büyükçekmece
çifti
bitiyor
aşağıdakilerden
##okim
artırma
ünü
atılması
çarş
maddeye
##hil
taar
##rey
hayatımızın
hektar
manip
ettiğin
personele
##şah
##kini
işyerinde
suni
ilçelerinde
##bilecekleri
adları
futbolcuların
başkanın
açılışını
çıktıktan
alınmasına
tac
alıyorlar
aradaki
deterj
evinden
numarasının
senato
##ıyorsunuz
pişirme
bulgur
gerekirken
##95
mira
geçmesini
kreş
hammadde
otog
pdy
aradığı
sör
deş
vaad
etmelidir
amb
görünmez
kürk
geleneği
sayfalar
kabız
##yy
tertemiz
##i̇şti̇
i̇ha
parçalı
serüven
vergiler
onurlu
bitecek
basının
kuruy
gelişmesine
çeç
hoparlör
i̇şletmec
##şit
##200
ağaçları
katlan
diyorsanız
düşürül
yasaya
arkeolojik
çekerken
cit
saglik
çolak
aidat
104
karşılaşılan
yapılıp
aklımda
##uh
##sizliği
pahasına
mürekkep
ekranlarında
disp
mahmud
soruna
olabilirsin
hepinize
kampüs
şuur
müsteşarlığı
söyledikleri
##ology
arkadaşlarını
sanayii
##bın
soft
karakterler
xxx
yolundaki
vampir
##tüğ
adayın
bünyesindeki
getirebilir
##üğün
liz
##daha
ipucu
huzurunda
food
türüdür
kuveyt
i̇rfan
anlatırken
koman
##ison
etrafındaki
senetleri
kuvveti
isterler
atılır
sıyr
##liliğin
personelinin
bindir
##siklop
umursa
içsel
adındaki
##kadar
##bik
##ric
davranışı
öpüş
vaziyette
oranlarının
alerjik
şarkının
##beyaz
yaþ
süreler
karşılandı
mig
genişliği
aşka
nuh
ahlâk
tekerlek
##tain
izleyin
hizmetlerinde
üniversitesinde
koşullarını
ilişkilerde
küme
gazete’de
ömrünü
azaldı
bildiğini
tags
üyeliğine
sut
ayş
##64
bağlanan
##mesidir
alışık
uçakla
##ler”
arkan
eşek
birliğinin
dizüstü
tweet
gücüyle
alışverişi
yetenekleri
hastanesinde
cenevre
##lm
von
değiştirerek
arayanlar
##hit
hazırladık
nijer
mânâ
##ımla
aklın
barzani
##pro
çöküş
veritaban
design
kurbanı
##osa
illa
çığlık
içk
jenn
sallallah
osmangazi
spora
aren
minnettar
##98
içecekler
hareketinin
yöneticilerin
ayvalık
karşılanması
nedenler
hesaplar
kararların
bahsi
yazışma
bankaları
gözyaşı
johnson
plaz
1963
çocuğum
arkadaşını
wes
ulaşın
gerçekleştirdik
dilen
##ronun
reddetti
gm
safran
box
kararsız
dündar
isteklerini
terbiye
fis
kayıtsız
simit
ihtilaf
sakız
dilimi
sezona
##alin
inn
produ
izlenim
sırayı
sanatkar
enerjinin
avukatlık
başlanmıştır
huzursuz
uzunca
sivr
imzası
jor
ped
seren
i̇klim
##oda
sonuçlandı
uçurum
uyardı
kitapların
fiyatının
şahsiyet
dayanıyor
sınıfının
faaliyetlerin
bornova
çalışanlara
raporuna
nurettin
eğitimden
##zel
büyüleyici
şenlik
##old
lacivertli
die
tarihlerde
##anıza
başlıyoruz
bırakılması
komiser
yenilenen
demeden
##izle
kalemi
##jk
kuruluşun
##row
borçları
komuta
##çocuk
çiftin
halif
ayrıntıları
iplik
iraklı
##’nü
gaziosman
kötüsü
i̇zlediğiniz
yürürken
planlarını
metaboliz
oyunlarını
eklenir
1961
kursiyer
dönerek
rag
yönünü
##bullah
abonelik
sayfanın
galerisi
tum
beklentilerini
ulaşarak
bitince
uğradığı
kurulunda
aptalca
kampüsü
dinî
##basyon
düzlem
dicle
##gic
##şaf
püf
sahtek
varis
edebi
yarısından
teknisyen
toplantılar
fetullah
hastaneler
folk
yatkın
kadarı
siyasetçi
bazi
kont
##ingen
##gie
ever
vefa
mıyım
ailesiyle
birbiri
yazıya
tamamlayarak
servise
karşıladı
kayıtlar
teknolojiler
özgeç
krediler
edinme
kaldırıp
oluşturmaya
kriterler
##idan
çürük
kaybede
kasıt
köşede
keh
##meyip
tabloda
eu
türkistan
rumeli
kamyonet
williams
bombar
pip
##opat
samimiyet
topraklarında
sprey
prostat
erbil
başarının
kovan
yönetmelikte
##yazı
yapımına
##’ini
eşitliği
ortakları
giderse
sadr
söylemesi
sonraları
değişmektedir
hakik
gelinen
rant
##ors
yoğunlaş
önlen
caminin
##larýn
kelimesinin
şuanda
küçükçekmece
namazını
malzemenin
sözün
artıran
finali
badana
tarafının
##etti
takımdan
birçoğ
içers
kırp
ds
dönüşümü
bildik
“ma
katan
##riye
##ladimir
etmiyorum
##niz
##abilme
edildiğinde
muhafız
ysk
hut
##brit
hitab
incelemeye
sunduğumuz
“yeni
##selen
albümleri
bedelinin
çeşitlilik
takiben
düzenlenmiştir
krallığı
ibraz
enflasyonun
bulunmaz
çiftler
yönetmek
oluna
blair
kompleks
##zya
selül
yankı
##yanı
##asan
sitelerine
i̇nter
işlediği
sayılabilir
kaynağından
kişidir
hissetmek
##miştik
içlerinde
gn
şeb
çelenk
sid
anlayışla
gerçekler
çalıştıkları
milyonu
pus
seçilir
dağınık
##lispor
sebeplerden
gelmesiyle
“e
hande
hollandalı
i̇skenderun
asi
dersim
yinede
burjuva
israf
kalmasına
biliş
vedat
atabilirsiniz
kadeh
nihayetinde
misali
##bes
demeye
sunulmuştur
##hip
##cat
##yayı
milletimiz
gezilecek
1969
hemşer
i̇çerik
gerçektir
aynısını
ring
ünvan
kaşıntı
salim
##eria
bulabileceğiniz
tamer
peyniri
yetmiyor
yöre
güneşli
kullanılamaz
tohumu
##’su
tasvir
anayasası
yırt
geceye
##park
yaşatmak
eleştiren
parkur
##ydın
turkish
topraklar
live
yengeç
aydin
şekilleri
sineması
serum
hazırız
ötesine
uh
##tansiyon
kaliteyi
tümünü
i̇ngiltere’de
naci
peh
planın
imtiyaz
yaratacak
oturur
batısında
elen
apk
konsantrasyon
i̇zmi̇r
mans
jar
karşılıyor
titan
nce
##ã¯â¿â½
görüşmeye
gerçeğini
götürüldü
uyuma
##gıç
boyle
ultrason
##rome
temsilci
“z
katılmaya
ederdi
alfab
##ılmakta
izleyerek
risale
##ente
##ett
electr
##’lerde
altının
sünni
kurallarını
##elenen
kavşak
sezar
finanse
binbaşı
bdp
anam
nazi
4k
##vanya
uyuyor
defned
##ville
1965
sevenler
##ginç
korkuyorum
##tığınızda
çalar
mikrofon
##raş
##eliğe
kademeli
1919
sözlerle
##tali
sorumlulukları
üstlenen
beyazlılar
rod
sistemli
cehenneme
dela
nostal
enerjiyi
##yana
aktüel
sevgiyle
kuşu
korunmak
modası
proto
cos
gazeteler
mala
yapmadım
fırsatını
haftaki
siyon
cıv
döşen
rose
##ool
tarihindeki
stal
edemiyor
kalorifer
göb
ortamın
setimes
sevinc
bahçeş
türüne
fiyatlarında
öngörülüyor
##gy
arıcı
i̇lker
##fo
kelimenin
timur
yetersizliği
almıştım
kabartma
görmeyi
cezai
dedektiflik
ilçenin
kurtlar
söylent
profili
##inasyon
ağaçlar
sınavda
epilasyon
##canın
düzenlemeye
yaşadığınız
sloven
teröristlerin
uykuya
##hası
korkarım
nelere
nötr
kadınlarla
büyümenin
##liliğine
mayın
primi
##layabiliriz
önümüzde
hazırlar
kısımları
raporun
seneye
i̇nsanları
kalabilir
gölcük
tamamına
kabuğu
goz
meyveler
##lemenin
dine
neşe
adliyeye
nizam
i̇srail’in
ekler
özver
##lamakta
olasılıkla
projesine
ödemiş
stadyumu
##sea
ayrıştır
vokal
amerika’nın
piyango
söyleyebilir
premium
hissedecek
şti
golcü
haml
arttıkça
kavanoz
bozma
##lıklara
yağışlı
içerikleri
basını
yargılanan
helen
efsanevi
zorluklar
mehdi
radar
##düklerini
bulunabilirsiniz
gösteriliyor
##osyal
dönemden
alınmak
karabiber
değerlerine
ürünlerden
talebini
ansiklop
155
christi
ailelerine
çatışmalar
i̇zleme
hazreti
partileri
kararında
##back
vez
canan
sabırlı
ekosistem
savur
deneysel
##ego
tarkan
üzerlerine
bulunmaması
##ılda
##lisans
bildirilen
gevş
kahkaha
görüyorsunuz
istiyorsa
##uyo
slay
i̇ncil
uymayan
sınıflar
vladimir
restore
kariyeri
##sterdam
aranızda
çıkabilecek
birçoğu
belirtirken
zım
##çıl
hijyenik
bomb
guar
duvarları
mensuplarına
aşaması
verebilmek
ceren
virüsü
##urnal
beldesi
klo
haftas
firmalardan
yaptığımı
tüi̇k
yaprakları
kurar
makineler
##pol
kullanıldığını
lans
bulgular
hanımefendi
telefona
mermi
dökülen
hesaplanan
##izden
##amdan
oluşmasına
anlamadım
##ра
nezaket
##dî
doküm
yansıması
dibine
unuttur
karşılıksız
tesisler
tmsf
gl
liver
doğran
geçirecek
bulduğum
bütünlüğü
turlar
sergile
düştüğ
akustik
merkezindeki
kesildi
sayfasından
##medikçe
##oterap
araçlarını
kaldırdı
edilirse
idaresi
##saf
hayalini
fasulye
gerçekleşmiştir
yerleştirilen
doð
babasına
book
##ımar
sönmez
birgün
odalarında
##enta
araçlara
ihtiyacının
secde
projelerini
hakkinda
görülmeye
hoşnut
##urumda
##etooth
olmalısın
##93
eliz
öder
bahsetti
##station
saygıyla
gösterip
talebin
tarafını
kadınlardan
kulaklık
hızıyla
ikramiye
kâfir
##mamıştır
etli
olayını
zamanları
okuduğu
unutmuş
faydalanmak
kayboldu
sunmuş
romalı
block
kurumlarına
kalanlar
##bola
büyüdü
##yid
görevlilerinin
bilimin
##lahi
görgü
tabiri
çit
öneririz
sayfamızda
ödeyecek
tıraş
soyunma
süreliğine
atletizm
gazetelerde
bilmeniz
meclise
çalışıyorsun
kaçar
şehitler
mecra
##layacağı
yanaş
pep
sürdüğünü
iyileştirme
bulundular
getirdiler
gökyüzü
seyah
sınırında
ilişkisini
wall
boğul
##tica
kapadokya
##lanmadı
geldikten
##izik
tıkanıklık
akarsu
değiştirecek
klavy
dönümü
hiyer
mercan
söylendi
mesa
##rettin
hükmet
çözmeye
esasen
düzeltmek
edilme
kılıyor
geçirip
giydiği
olym
uzaya
kasımpaşa
dus
gösterilmesi
##101
havayı
##ırsanız
##luğundan
kısıtlama
beklediğini
bakı
##emediğini
ihlali
olabiliriz
bahsettiğim
ekiplerince
kafkasya
kesilmiş
##iforn
zül
amsterdam
##badem
##iker
indirebilirsiniz
bendi
sokağı
işaretleri
118
işletmenin
hatırlar
##ross
##err
cesed
##nalı
##bire
##cılara
sitenizin
ferrar
biriken
##strük
elmalı
yıkıcı
suriyel
##madığım
1964
sed
teğmen
şubeleri
duyunca
ülkücü
lezbiy
##vuru
kaybettik
sonuçlanan
##latıyor
seyhan
astım
filmlerin
başarmış
bluetooth
2017’de
##ydık
nark
ağar
eleştirel
eşine
1080
üslup
who
dolmuş
uygulamalarını
taşra
becerilerini
yapmayan
altta
rakib
1200
yarayan
temini
##ölç
##yi̇
##atar
giysi
##özel
##mazdı
ilkel
hareketlilik
mekanlar
##’lık
inovasyon
##96
hidrojen
ücretler
hua
yapamaya
işbu
##üel
öğrencilerle
ediyordum
ronal
raporunu
##mamızın
uyuya
statüsü
gitmez
yerdir
girmeyi
mafya
##ştik
ürünlerine
gösterim
üretmeye
ayrımcılık
şekline
##cumhur
gayreti
##cesine
##unay
ekibine
##i̇b
fikirlerini
mağduriyet
boşluğu
vermemek
işinizi
zaaf
merkezlerinden
yendi
hayatımızda
uğray
kulübe
hazar
estetiği
verilmesine
kıvır
##diye
umurumda
bale
sorunlarla
kokusunu
salonu’nda
hadise
##ucak
check
daum
bilgisayarlar
üretilmektedir
yayımladı
bitmez
düşürmek
aynıdır
hazırlandı
çörek
rekoru
edecekler
demesi
brit
üniversitelerde
##lanmayı
gösterilir
platformda
yapanların
formülü
şebeke
sonun
##ahmet
zorlama
mezarlığı
1945
başkanlığının
efe
potas
ipuçları
sinin
konsep
##oi
konur
şeydi
kağıtları
patronu
yönetilen
##ansever
muhtarı
yapacaksın
evime
ağaçların
vektör
##rick
lütf
seyreden
önerilir
akışını
kuruluşlara
unutmamak
kariyerine
watch
çıkacağını
incelendiğinde
ego
litr
demiryol
içeriğinde
konumlandır
##cs
hattının
birimler
##asý
marks
bakarsanız
sistemle
komed
engelley
text
tufan
joseph
tarafindan
beyt
çıkmıyor
kac
tesbit
veh
mevzuatı
yapılmakta
okunması
metodu
izini
bilgisayarın
doğruluk
tosun
tebliği
markasının
kalitesinin
binaları
öksüz
günlerini
##layıcısı
kuruyor
bitkileri
gönülden
üyenin
sandv
kararda
mevsimi
metin2
long
dezen
kesit
adapte
ekmeği
i̇lçemiz
##duy
##57
telefonunu
seçtiğiniz
doğruya
##latif
sömürg
konuşmasının
kaçmaya
konulması
standartlara
##lä±
faktörü
festivalin
başladıktan
dilleri
horoz
flo
havz
hizbullah
gazetecinin
alabileceğiniz
laiklik
orkestra
konuldu
“ak
##abilirsin
varlıkları
i̇nf
sina
i̇şyeri
i̇lginç
özelliklerinin
##eke
dedir
hepat
gördünüz
gul
##şir
##iyal
gil
##tebilirsiniz
olsak
yapılmasının
mid
cahit
sorusunun
premier
yabancılar
bilirkişi
aciz
sevim
eziyet
karpuz
çalışmalarıyla
##şeti
hack
dayandır
kesik
nakled
başlatan
yerleşk
tedavinin
çoğalt
baro
gereklilik
fenomen
##cit
sirket
##eter
konumunu
sitem
nasa
sloganıyla
anlatacağım
nöbetçi
##çilerinin
##lanmasıyla
ekiplerinden
artırarak
tutsak
anlaşılmaktadır
ağrıları
kırma
yararlanma
hesabınıza
planlaması
yetmiş
zenginleştir
müşterilere
modülü
orkestrası
##sefi
hastalığına
barosu
topuk
##icek
dedin
benzerlik
duyurusunda
yaştan
etüt
tefek
dayanı
##amızdaki
kontak
sağlıyoruz
kırdı
##lanmanın
hir
demo
shak
tour
koşa
sapık
katkılar
ivme
bombardı
larda
##ute
iddialar
##ağaç
pekmez
verenler
hedefine
hisarcık
kaplum
yapıldıktan
boyacı
başınıza
uçar
aktiviteler
##hap
hazırda
##rent
çevredeki
akşama
tebli
##bisi
müslümanlara
kürek
sabi
turistler
dolaşıyor
sela
direnci
##ımdaki
toplanır
hadd
yaptınız
karasu
politikasının
mezunları
##sanın
bulunanlar
biskü
görünse
teps
yerleşen
##duğunuzda
artışın
inceler
sistemlerini
madeni
araçlarla
kurtula
bilez
vermeniz
##dol
yığ
sanatçıların
##çalı
ille
sunmayı
##ayız
merkezini
yakar
eras
##veri
magnez
rengar
yasaktır
elimi
takıl
geyik
şöval
suçlarla
selan
##aşa
katılıyorum
varil
mekanları
rahatlığı
yakını
pişmanlık
kusma
must
kampanyaya
armut
belgenin
takın
##asinda
kültürün
ilçesinin
hakiki
annesini
kaliforn
umuyorum
esasına
afa
hs
doğası
boyan
gibis
günlere
##uter
alınca
çekmeyi
diğerlerinden
haziran’da
##larina
edebilirler
akdağ
futbolcusu
temsilcilerinin
sizlerden
örtülü
programlarını
raporlama
carol
yaşamaktadır
indirip
rusça
bazılarını
yapacaktır
durumdaki
optim
spk
##meksizin
hürmet
birincilik
kişiliği
güçlendirmek
##gür
yaa
kanununa
##kins
düşünülüyor
materyaller
denizlispor
etmesinin
spir
numun
bahçeşehir
çeyrekte
gökçek
ögren
drag
plajı
lot
##ilim
kabine
edinmiş
doğada
uzlaş
asılı
##ikan
yapabiliyor
yıldızları
ilişkilerinde
verdiğin
kauç
kutluyorum
süreyya
sürdürdüğü
atm
omega
yeteneklerini
sitemizi
bide
##dıklarında
yukarıya
katmak
##kir
faci
dergisinin
karşılaşıyor
olg
express
gideceğiz
geldikleri
çırak
##ulos
ortodoks
kesti
çeşitliliği
bankalara
nişanlı
kontrat
çürüm
sunmaktayız
değiştirilmiştir
senelik
dönemler
şarkısını
##83
hatırlamıyorum
gündeminde
belirleyecek
traj
liverpool
she
arsen
öksürük
bölümlerinde
çalışmasının
renklerin
müzikleri
birliğin
günlerce
belediyesinin
bilmesi
eylemler
arkadaşımın
i̇lahiyat
ithalatı
##şüt
hi̇z
yarayacak
cennete
gi̇r
arafat
carl
yapti
görüşül
ikiniz
getiril
atlama
oyunların
isteye
yiyip
toros
bütünlük
##ceğiz
##öğüt
şii
##mışım
erik
##çesi
sti
hoşgörü
##ýmýz
##uğu
##sanı
topbaş
dm
gruptan
yuz
besleme
sütlü
yatağı
ödüller
salgı
parti’nin
657
beyazıt
##amadım
portr
fahiş
çırpın
team
seçeneklerini
heykeli
işbirlik
gruplara
hok
sý
olmamıştır
marifet
ekliyor
siyasî
yapısında
penta
savaşında
politikasını
değerlendirmede
çalıştığımız
eyaleti
rağbet
##emezler
sürdürülen
sitesindeki
görmem
isimlendir
##oskop
##lığımızı
kahro
kalbim
ürünlerinde
olmayanlar
sesin
istemiyle
fantezi
antak
değişimler
##uu
üstad
odam
kullandığını
i̇spanyolca
ölümünün
##cess
kurulun
söylenir
##jit
arkadaslar
ilmi
i̇kisi
skoru
sondaj
kibir
##lerimin
lokasyon
girişiminin
ağızdan
teftiş
teröre
yanlışlıkla
etkilidir
media
kadarki
yapmakla
projelerinin
derslerin
albümün
değerlendirilir
kılar
menüsü
fotoğraflarla
müşrik
##dent
arabalar
yaşaması
duruşmada
soktu
##urucu
bitkilerin
eserlerini
##kot
rengarenk
hazırlayıp
kokan
diriliş
##âf
rakamı
getirmeyi
diziler
kla
ea
ân
##92
mukaddes
sistemlerin
şuna
##ilan
kapasitesine
kalacaktır
edenlere
terket
pudra
yeşilyurt
skorla
harfi
run
edilmemesi
inisiyat
sabahları
rulo
ölümden
end
##heast
istediğinizi
##çiye
halis
taşınma
bölgelerine
işlemine
inceley
buluyorum
kurtardı
##kardeş
açılışında
düşünürsek
kitapçı
çocuklarımıza
dalgalanma
açıldığı
yerdeki
teklifini
sayfaya
etrafa
torunu
yetkileri
açıklamayı
vezir
##mayacağız
hazırlıklı
##küler
eric
tus
dağlar
pasifik
##gım
##gını
pazarına
anlaşmazlık
kaynaş
tramvay
##i̇ci̇
sebebini
scott
yapıyı
java
satışını
yaparsa
bağlanır
köşeye
blue
ocakları
almanya’nın
hendek
ölmeden
kavramını
katılacağı
alışkanlığı
durdurma
buca
talihsiz
imzalandı
ilerde
olunması
baby
fetva
oynamış
avans
##emm
dönemdeki
şeriat
university
seçer
yaşamında
yükselmesi
iyon
belirtisi
talepler
suz
müesses
çağında
istemesi
##istlerin
oryan
mercim
bakanları
parçasıdır
isp
ettiğinde
##tesi
##gina
özgeçmiş
oğulları
mağazaları
tig
pamukkale
geldiğince
##uge
yanımızda
düşünürken
bilinmesi
bildirmek
##leşmenin
##şin
gidebilir
ortamının
uygulanmasına
‘k
##li̇m
çocukla
konsolosluk
seçilmesi
yenen
buluşması
yönetimler
hatırlatmak
hamd
edinen
durağı
yatırı
odamız
üretilmiştir
i̇şveren
oluşturabilirsiniz
bulunurken
standardı
olmama
sezgin
yürüyor
##anların
üretme
otellerde
##vari
sokaklar
yapmayın
hâle
dönmez
sokul
yüzeyi
ishal
vurguluyor
büyülü
vadi
telgraf
nitelikleri
sahipliğinde
girişimciler
muhalefetin
kata
verirseniz
ihalesi
##digim
açtım
sevkiyat
##mamaktadır
##но
olmalıyız
etse
##chan
southeast
taşındı
değildim
halihazırda
içinse
görürüz
dolan
başlıklar
içim
videoda
yıprat
paraşüt
yazmayı
cevdet
türünün
töv
başkonsolos
yeğen
jeneratör
krize
oc
dergisinde
hall
230
felsefi
yurtdışından
turbo
kurtarmaya
namık
ayaz
deneyimini
kokteyl
gmail
alımları
jak
##laştırmak
saldırıların
şartlarında
devrede
çıkmayı
ankara’ya
liseli
##ilin
anadolu’da
hitit
##ğimiz
muhabiri
file
burdan
ülkelerdeki
kazancı
##dt
bedi
küçül
hemşehr
hurma
varsayılan
hareketlerini
okuyorum
değerine
durdurul
bakarken
yaşanabilir
evlere
bozulması
modi
etmelerini
i̇stek
sql
anayasanın
bayilik
##68
birazdan
sayının
maliyetli
sertifikalı
magnezyum
düzenliyor
metaf
ören
##üç
##wei
mahvet
uymak
##iyeyi
atıştır
piyasadaki
suyunun
diller
bahsedece
içerisinden
haftasonu
vapur
fiyatına
çözülmesi
i̇sterseniz
mürette
süreyi
adaleti
ağlar
##ûmet
körfezi
##iha
davaya
durumla
kitaplarını
mario
##gra
##ition
venez
oynayacağı
yansıdı
dahaki
sif
zim
mıyız
beklediklerini
mimarisi
sağlanıyor
derbi
##larinin
dinlet
açıklamasına
bahsediyor
##mün
##’sı
bedelli
bildirilir
beko
gülümsem
tartışmalı
otomobili
kip
defasında
birincil
çekmeköy
anlayışıyla
yürütülmesi
hayırsever
bütünüyle
esaslı
##yoz
yorucu
engelleri
yaptırılan
odağı
haiz
toplumunun
##ülürken
dikkatimi
hi̇zmet
##mahal
fiyatların
##m2
turgay
çi̇
tehdidi
küçült
ryan
zel
paylaşılan
karıştı
non
kaynaklarından
öğrencilerimize
olmalarına
atlı
alınmaktadır
##71
siteden
##ustur
hayatından
araştırmalara
kolaylaştırmak
bilmediği
becerisi
attır
çalışırlar
dönerken
istemektedir
kontrolleri
yörüng
alıyordu
##antum
ebedi
öğr
dünyan
##ins
zab
lafı
sevgisini
başh
ayran
doğar
ürünlerimiz
##abeth
gap
dişli
singapur
seçtiği
sınırlar
şaban
belediyemiz
kaptanı
yapmaktayız
örgütlen
övün
tanıttı
anadolu’nun
kauçuk
##bby
trom
korkak
müftü
##öğren
i̇tfaiye
aşkım
politikasına
gore
mithat
bostancı
diyeti
##ical
bandırma
hipertansiyon
çarşaf
operasyonun
varlığına
değişimin
üyelerini
##ilebiliyor
eyleme
yelek
akçak
yapılmaz
okulunda
dink
başvurusunda
işlemlerinizi
usulsüz
yetkililerinin
ilkbahar
white
##vit
riskler
değiştirmeye
katliamı
pili
soldan
##eleştir
var”
hesaplanır
bayar
sosyoloji
kaliforniya
galib
lokomo
sarah
muhareb
azap
özk
kaynaklara
kaymakamımız
yalnızlık
döndüm
açıklanacak
gözlerin
hepimizi
lezzeti
bağlamak
onaylanmış
dikdört
anh
enteresan
evlendi
tamamladıktan
kullanıyoruz
chel
##ple
yaşları
yakasında
sarsın
##mor
kuruluşlarına
gürkan
deve
lozan
yapısıyla
heyecanlandır
##esiydi
uçağa
wr
gelmem
lâzım
ödenir
düþ
donatılmış
sedef
yakin
##forma
acısı
##ader
##latın
fiyatını
320
hadî
işbirliğiyle
yükseliyor
memnunum
##akıtan
bilgisayarınıza
baylar
maçlarında
pem
önderliğinde
fiyatlarına
öteye
ticaretin
i̇şaret
tarzını
peç
##ides
trafikte
kayıtlarını
##anıma
oranlarını
seferi
ailesinden
nm
baki
##elerdir
ersin
##imdi
vuruşunda
bonser
##boş
programlarında
fethullah
çeçen
##i̇ne
piksel
bakanlığınca
unakıtan
payını
oluyorsunuz
yakınlarındaki
##41
sessizce
bayraklı
zeybek
sıy
kevin
fla
##cağa
açıklamıştı
unvanını
girince
kated
karabağ
eğitici
topkapı
yk
arayışı
##lanta
etkinliğin
şevket
##nem
##lamayacağını
şapk
üstünü
##elem
chrome
yener
bulunuyoruz
hocanın
sarp
tampon
i̇ğ
antalya’da
durul
potasyum
yazıldı
eğitiminin
##âs
style
işı
salgın
cihat
farsça
1966
yapıldığında
hususta
hocamız
girişimleri
uygulanmaktadır
htc
sahadan
navig
player
merkezin
gurup
##ıı
kaleye
asli
verilmelidir
ladin
##ilebilen
bisik
yarısına
diyeceğim
mouse
yiyor
mecid
türünde
##isim
hayvanın
vitrin
mers
dh
himay
##ilmiyor
hanımlar
dolandırıcılık
üçü
selanik
erasmus
simülasyon
parçalara
##mağ
resort
dostları
##cınız
145
kasır
teori
wolf
edileceğini
melan
haçlı
sitelere
i̇ngilizler
dönüşüyor
iktisat
tugay
yabancıların
berrak
meta
öðren
sözleşmesinin
##esifik
sûr
almaktan
##dili
##gane
##lonun
nerdeyse
tutucu
muammer
ürküt
açıcı
gözlerinin
davrana
önlisans
eleştirmen
takımların
yazımı
değiştirir
dns
ax
yüzölç
mahsur
tümüne
american
endüstrisi
ox
yatılı
royal
cafer
şunlar
##eyken
etkiye
frankfurt
##akt
tedarikçiler
##selâm
bularak
çalıştay
limited
distrib
başlarda
çiftliği
##mond
ã§
yorumunu
bozdağ
halkımız
miami
beyni
ücretini
venüs
erkeğe
meşin
sırayla
turhan
##ılacaktır
orantılı
gülüş
bebeğinizin
##arlı
görevinde
ulaşmıştır
1940
ee
yangını
formda
şoförü
jimmy
kadınım
pekin
kampanyalar
##bayla
edilmekte
##gum
aqu
alpar
teslimi
kasted
##koca
turkiye
kesimin
antr
ciro
i̇şkur
niteliğindeki
sürdürül
köylüler
yediği
##iss
arayabilirsiniz
uyguluyor
##dır”
teklifler
varlığının
notebook
koşullarının
sayfayı
gittiğim
sağladığını
hareketsiz
##imizdir
kahrolası
uv
hükûmet
bulunuldu
yemeye
demi̇r
hakkımda
kaderi
büyücü
##oshop
çalıyor
##ance
desteklen
sitelerin
aids
gibiler
milas
malezya
##esiniz
##berry
olacağından
ayrıcalıklı
amacını
sebepler
enkaz
değerlendirmelerde
sürüp
teröristler
firav
meydanında
sözcüğü
tamamlama
##panya
sivilce
diğerlerine
ibarettir
bilinmiyor
kumandan
puandan
halleri
erkeklerle
##liliğe
ayrılıyor
gösterime
köyleri
mercek
gidem
yapabilirler
evim
oyunculara
kaybetmek
etmemiş
aracının
alek
kullanılmasını
uygulamalarının
belkide
##bad
derinlemesine
##alılar
yugoslavya
burnu
bildirir
belirttiği
muhak
kate
##bour
kartlar
##ütün
dedem
öncek
karıştırarak
ruhsatı
109
andır
havalarda
destekleri
milliyetçilik
365
müzakerelerin
kişide
hizmetinizde
dizileri
bulaşı
lenin
kısık
selen
fosil
kenarına
cela
beğenilen
sağır
kuvvetlerinin
vergilendir
hattında
apaçık
gözüne
santrali
engelleme
##esk
maraton
katsay
eşyalarınızı
bağlantılar
gerçekleştirilir
xbox
##layacaktır
kırıcı
adlandırılır
şeylerle
##zem
inanamıyorum
pp
giysiler
haw
öss
##67
anlattık
borçlarını
bitiren
anladığım
anlatarak
califor
rekabetçi
##rant
##yasını
##ello
##’lere
hücrelerin
dekan
engellen
##gama
sorunlardan
ormanlık
##heimer
##ies
yükseltmek
tipleri
haciz
bandı
hicret
bölme
210
teşhisi
eleştirdi
avukatları
tablolar
çinko
scrip
şanzım
nane
yükünü
girmesini
yaşamının
nadiren
##’m
##amam
bahçede
olursan
acısını
sınıfın
##şeh
iin
ayırma
çözer
fuarda
özbekistan
elçi
adapazarı
kelimelerin
##emeyeceğim
##çi̇
kaymakamlık
havalandır
bombası
tahri
sürmek
sevme
ilçeye
önlemlerin
kanunlar
uran
taran
tecrübeler
zammı
kadi
rüştü
yönerg
yemeğinde
yöntemlerini
düşündüğümüz
aşçı
hilal
mallar
çevirmek
ferrari
nal
##acaklarını
rahmi
kredileri
defne
##lünün
reklamlar
düşerek
tesir
index
yolların
katılabilir
dernekleri
stant
sitelerinden
kesilir
olamayacak
doldurarak
hocalar
vermeyin
kararlarını
arttırır
şirketine
uğraştı
i̇stediğiniz
örneğini
bey’in
ortaçağ
brad
kaynağını
##este
bloğ
tanrının
ettiğine
hazırlığı
##ced
yüklem
##iza
transit
##uka
fuh
çekmektedir
sokaklarında
yapılmamış
bist
bn
motorları
patlaması
sağlamayı
şöyledir
karagöz
şahıslar
katkılarıyla
yurda
detaylarını
benims
olaylardan
kron
yolculuğuna
oktar
slovak
konsantre
adımda
##burada
neticede
küvet
şehvet
##lerime
##ents
yörük
pilotu
karanfil
kırılgan
##pal
##rab
bağlayıcı
silahların
yolundan
iskelet
anlaşmayı
i̇stasyonu
alçı
kapatılan
müeb
konan
güneşi
anlarda
ım
kültürüne
olmanızı
halkların
psikiyatri
operasyonel
techn
çalis
hayvanlara
##şat
düşündü
nom
##üsüz
##elin
denizden
##duğumu
karakterleri
kapısına
##obe
kodlama
şekliyle
aöf
engelle
ruhun
##binlerce
operasyonları
##dayı
hedeflere
##mamalı
karşılaşmayı
##emeden
dramatik
##atay
pn
kulis
##cüsü
karanlıkta
yarının
melekler
imkanlar
kodunu
si̇stem
dururken
hayatları
azalta
##61
cezalar
yanak
araçlarda
gerektiğinin
spesifik
manada
izlenmesi
verdikten
rastlanan
çoğul
hizmetlerimiz
durması
##mettin
istemediğini
rejiminin
bastı
linkleri
##raph
kontrolden
##landıktan
##gro
##card
başlata
savunmak
night
duygusunu
yaşamda
kapsül
teklifleri
boyutlarda
piyasanın
farkını
depremin
kavramının
edersen
arabaları
yapılamaz
kurmayı
dolabı
sandviç
tebligat
pig
formasyon
kolunu
kesintisi
law
##uli
##ıltı
konularını
aktarım
incelemeler
tartışmalara
keresinde
ufa
zü
##ğımı
odalarda
taşk
yenilgi
vatandaşa
hayatınızı
##85
plaza
##rap
toplayarak
teşekkül
uygulamasında
gezmek
anlayabil
reformu
saatin
sunulur
yapılabilmesi
paylaştık
kayıtlara
##ılınca
püskürt
büyüklükte
girdikten
gaziosmanpaşa
çizgisi
sahibiz
sayfalık
kavak
kiraya
young
kazık
porselen
ruslar
papat
mevsiminde
hastanenin
kubb
##cap
memurlar
numaranın
gönderilecek
##abilecekleri
öğrendi
takipçisi
örneklerinden
##ote
bahsedilen
kameralar
örgütlenme
eşref
##usan
semineri
##leşir
değerlerinin
##ude
birliği’nin
##leşmeye
sezonunun
caner
femin
işlerinin
zamanını
karşımızda
telkin
pl
tüfe
maksadıyla
makas
yetişmiş
göstergesidir
akgün
css
karataş
117
##oman
büyüğü
##bara
##oglu
bilinçsiz
##89
temelleri
tercihleri
tanısı
mega
i̇slamcı
ararken
##yıla
bunalım
yeminli
yürümeye
mevcu
kediler
i̇ttifakı
py
uygulamalara
gösterdikleri
görüşünde
takıntı
aracılık
##ilmis
justin
edeceğiniz
dükkanı
yaptığınızda
zirvesinde
olimpiyatları
tofaş
onarımı
850
isteyerek
leb
tahliy
kurun
düştük
ediyorsanız
dileyen
##etim
gelmeyen
i̇lyas
uçakları
victoria
diziyi
teminatı
kapatın
üstlendi
anlayışının
beğenisine
rtük
##luluğa
chi
##lımlı
ayas
sahiplerini
kıdemli
yaratılan
##link
kirpik
inanır
dezenf
avukatlar
santimet
sıradışı
önler
digital
kesilmesi
kolektif
çalışmalarımızı
bitiminde
##ister
ilimizde
böceği
camisi
imtihan
ünlüler
büyükelç
bebeğe
##ido
keşfetmek
talepte
ışığın
##emens
seçerken
beraberindeki
##miy
yorgan
erkenden
masanın
desteklem
kafasında
steril
melo
ilgiyle
çöpe
tatlısı
##lamayacağı
ank
sağlanmıştır
##ater
durduğu
sinirli
içersinde
edrem
kaçakçılık
çektim
söylemiştin
geçmez
sincan
kapaklı
##inecek
##usundaki
sürmesi
sans
görüştük
ekstr
ormanda
seyit
playstation
afrik
okullarında
analitik
##´nin
bakışta
db
linki
ödemeyi
yanlız
bulutlu
cazib
##ely
cry
biyo
marina
uğraşı
##iyseniz
##umuzdan
zümr
sokmak
yöndeki
manzaralı
##mamın
##ýnýz
i̇dr
doğacak
namazının
ölümle
demokrasiye
kaynaklandığını
##wagen
naylon
küpe
binde
telefonunuz
rövan
konuşmaların
sult
savunması
hayvansal
kaybedecek
fedakâr
sağlıksız
hareketini
annelerin
krema
herşeyin
anlayışına
##melerde
165
düşündüğünüz
müebbet
maskesi
şehirdeki
kilitli
rızası
incelemesi
ilâh
##dn
yazıldığı
paylaşma
bayrampaşa
road
temmuz’da
##lerinizden
muyuz
##blo
california
hikâyesi
bildirimi
##liyim
games
dönmeye
##i̇ye
bilişsel
güvenini
reklamları
küre
düşünmüş
hans
şehrine
mevzuata
##iloc
etkinliklere
yasalara
##laþ
huzursuzluk
##ozom
him
savaşan
kurtarıcı
baran
içen
çın
yaratılmış
sair
konuşacak
journal
1800
koşuluyla
dinliyor
belirttiler
firmamızın
pencereden
sauna
anlatıldığı
sodyum
alamayan
kullananlar
i̇şadam
##reş
ari
arabada
başkanlığa
yurdum
parçaların
##ations
sabiha
gruplarının
düzenin
lütfi
fro
kanallar
bağlılık
edilmeyen
farklılıkları
yaptıran
##diyseniz
dikdörtgen
yakıştır
içimden
##lığımızın
sanata
kaydedilir
alparslan
eko
şansınız
##ond
zin
wikiloc
uygulayın
ölçümü
gözün
satışlar
ailelere
çalım
fişek
mw
temizlenmesi
haberimizde
bora
dayanılarak
gürcü
getirisi
yayınlanmış
irk
halktan
tarçın
maçlarını
##tm
kanın
tanıyorum
etmektedirler
toner
peda
niyeti
sınavında
pierre
süb
büfe
##pn
##´da
şartların
kapitalizm
yazılımları
zeker
bağımlılığı
distribüt
kurumunun
doğumdan
işbirliğinin
##hadet
agresif
beklemeye
kalbinde
dikkatlice
vesileyle
##cb
girişiminde
fosfor
içindedir
taarruz
nakliy
ampul
manevra
arch
gole
dark
diğerlerinin
doktorların
acıbadem
enfes
tulum
##kie
lezbiyen
asliye
ayağını
kanunu’nun
simon
veriyordu
oğlak
alışverişinde
fıkıh
zamankinden
alz
bow
uyarısında
soracak
saçı
inip
yürüyüşe
##eze
hedefleniyor
çetinkaya
oluşturulacak
yakalanma
prestijli
280
kurumuna
keten
##lıyız
##olun
##ame
ateşkes
kesinti
etmediğini
##dm
ekonomiyi
##bun
anlattım
incelik
şeytanın
geldiğimde
##lıyorlar
şansım
dualar
şehid
çekirdeği
araban
isteyebilirsiniz
i̇bb
yaşayanlar
eee
ibret
teog
photoshop
gazetesine
tcmb
enerjisini
edemem
##isar
cila
fp
lahana
keza
analizleri
##cini
yolcular
insülin
bittiği
getiri
720p
edeceksin
edilmem
##inip
istersin
sermayesi
ulaştığını
müdafa
şirketlerinden
gölbaşı
hanımı
söğüt
mili
aky
yemekte
hastaneleri
yaratmaya
dönüşen
##eşil
##ekin
oluştuğunu
##misiniz
kızlık
yayılmış
resûlullah
projelerde
dosyanın
ronaldo
sustur
görmektedir
edilmemiş
##ain
planının
necmettin
##tığımda
i̇skan
iletim
noktalarda
i̇stihdam
kukla
varlıklarını
kurduk
“sen
borsada
##04
##stone
##icik
##biliyorlar
yaparsan
üzerimize
tayfun
gerçekleşiyor
başlayalım
##gaç
##ider
sayıl
futbolun
minar
stratejileri
görelim
toplant
neo
##igo
##lanmasında
durdurulması
reçete
solucan
ailede
uçakta
hallede
elvan
camp
##letin
eşyası
benimde
ölümün
sınırlama
gelebil
şehirden
2016’da
sözlerin
##iyev
çevreyi
antonio
tari̇h
i̇şyer
menop
antakya
bany
saydam
tepeden
##atları
statik
haliç
topraklarına
başlarlar
hemşirelik
kaderini
siemens
hedeflerini
ayrılıp
mendil
feribot
borcun
national
nedim
mekanın
seviyeleri
tuşu
çeyiz
vasıta
binaya
cumhuriyeti’nin
semtinde
porsiyon
vermeleri
yürekten
sakar
çevirmen
kanad
i̇lçesinde
adaletin
türbanlı
anneme
pf
sözleşmeleri
##eksü
ayakkabılar
başlayacaktır
arter
sayfalarında
kayıpları
matematiksel
hükme
sho
reşit
tahk
##laşmak
##omik
zür
asus
tepesi
sahih
hamit
harbi
##oğlan
götürül
varlıkların
##egül
makamı
türde
dokunulmaz
uygulamalarında
yaraya
durumlara
##ekkur
coşku
anlaşılacağı
##maların
##ques
duyacak
konuşuluyor
taşınan
temsilcilik
milano
çıkarılmış
üsküp
etmiştim
belgeyi
sonlarına
anladın
dif
köyüne
##çar
##asc
bakanlıkça
düşünülmektedir
multi
kalitesinde
galata
##burgaz
bağımsızlığını
görevlendirilen
gittiler
bakanlığa
hakemler
parçasını
##hir
##dey
##chel
evlerinin
arkadaşlara
oğuzhan
sağlığa
canlılar
huawei
makb
walter
gideceğini
tasarıma
gemide
kafat
volks
yuvası
sorma
gerçekleştirilmiştir
candan
belediyelerin
ruhuna
çalışmalarından
halkalı
molla
tedavisinin
külliy
konuşmanın
gömle
travel
perişan
##iliyordu
şenliği
vermenin
işlenmesi
galibiyetle
arkadaşına
edildikten
otopsi
verimi
varsayım
yapmanızı
çapta
bült
##rich
orayı
adıma
cenab
edremit
sürücüler
memnuniyetle
sığınak
sınırına
sosu
inanıyorsanız
takibe
miktarlarda
yapılmaması
dinleyin
önergesi
düzenini
meseleyi
kaldıkları
127
işimi
bağışı
önerdi
kelimesini
yazısını
cezasının
edi̇
yemeğine
öngörü
hipo
dolum
takıldı
inandırıcı
izleyiciler
cenneti
merteb
bulduğumuz
gelişmeye
kardeşini
ekspertiz
sokaklara
ulaşmayı
mahir
##âmet
##icisi
carlos
hi̇
kullanılmasına
kefa
almanızı
sevdir
izniyle
apar
topuklu
ilgiyi
adaylık
zelanda
görmemiş
kaynaklarına
haftadan
i̇ranlı
bulmaca
vilayet
bağlantısını
rp
nej
ödeyerek
kablosu
nezaret
üzünt
tl’lik
olmalıydı
##emet
atılacak
kaymakamlığı
sitenizi
ucuna
rahatlık
zarı
vahim
artırıyor
pad
uyul
çağrıda
düşünüle
bursa’da
aram
teyze
gösterişli
##ius
arthur
yarışmanın
##ti̇k
##dükçe
rauf
oluşumunu
istemediği
sinsi
sakatlık
topuz
sergileyen
##lerans
fotoğrafın
akıllıca
eşyanın
hizmetten
##ürn
işgali
konsoli
kitaptan
sisteminden
öğretmenlere
zevki
erişkin
batık
rafa
etkileye
sebzeler
annesine
araştırılması
şeridi
terazi
kurulmasına
yitiren
çıkarmayı
##çeşme
insanla
halife
nüfusa
balıklar
kanatlı
bilgisayarda
##ysan
görüşür
mef
çerkes
girdiğinde
ozel
arak
##sık
geliyoruz
kapsayacak
şiz
görülmemiş
ermeniler
korktuğ
içgü
uygulayarak
reyhan
lady
honda
görüşmenin
seçebilirsiniz
batıya
dokunun
sanayici
slayt
parçalarını
acik
##tgen
seçimlerine
##inger
rakı
mekanlarda
tadında
rakibini
gemiler
adresinize
birisine
yanıp
ulaşmaya
yangında
##´ın
ziyaretleri
ilgisiz
under
taraftarları
##enti
nohut
filmlerde
##ector
tarafındaki
oynayarak
stock
sınıfında
kurdukları
##larız
##shop
mich
hesabında
ekranın
puanlık
girmesine
yollarının
##far
##liğim
tasla
kurulur
belirtilerek
fonksiyonları
hepatit
224
yürütüyor
##beli
i̇lanı
gönderebilir
##yek
ihtiş
##ânî
pok
##ball
giderim
banko
işbirliğini
uygulandığı
uyumsuz
pab
gard
hill
kenarı
##lasına
kürtaj
olmamakla
yapmalıyız
##tent
##düğüne
bahsede
finalinde
dönemindeki
savaşlar
alç
allahın
gidince
##giller
enc
planına
takipçi
birleştiren
##urs
furkan
medyaya
“in
yağdır
anneleri
gürsel
vücudunun
gastr
yilmaz
funda
yaşamlarını
çalışmakta
desteğin
nede
kaybettim
yakalamış
tatlıses
i̇stasyon
avni
çeşid
##gust
piç
görürsünüz
dershan
demeçte
yönüne
değişikliklerin
delalet
kullanımında
çıkacağı
##eyan
kullanıldığında
ayrıcalık
##lasını
ilçemiz
dörtlü
derdim
soba
yüc
yönleri
##bro
nesi
siyasette
ortop
birbirinin
görmeyen
birbirlerinin
kampa
dayanıklılık
ödemeye
ilin
kalanı
uğraşmak
erbaş
gökçen
kemi
paylaşıyoruz
ayrılmaz
##inle
göğüsler
barışın
şansına
##94
1918
telaff
besleyen
resimlerin
yatıştır
dalgalı
##itch
sarar
laur
ifadelerine
edward
bildiğin
elim
##gimiz
trajik
chelsea
ceo’su
senk
söndürme
yapılmaya
planında
ülkelerle
ruhani
markalı
rastlan
kapatıldı
gözünden
biliyorlar
programların
açılmasını
bulanık
111
taşıması
yetmezliği
##ğit
duvarlar
atarken
i̇stanbullu
işlemlerde
etrafına
yapmalıyım
edilebil
seçici
verilmez
yaşayarak
tamamında
oluşturmuş
günlerden
mani
##vice
##mayacaksınız
raylı
şemsiy
##yl
beğendiğiniz
sigor
kle
buket
talebinin
##kor
geldiğim
yararlanabilirsiniz
sakıncası
arşivi
degis
gittiğimde
bağlanması
##sol
eşittir
yaşay
alındıktan
tamamlayıcı
kadastro
buralara
bariz
dusun
tahribat
poy
aracını
uyarıcı
tersan
stephen
kırgızistan
atması
sigarayı
##ecd
first
kullanılmalıdır
içime
alınırken
maddeyi
sebeplerle
yayımladığı
oynana
karşıma
tartışması
yapılabil
tanıştım
gittiğinde
bað
çıkışlı
yunanca
verem
enflasyonu
hayranı
##ер
başvurdu
kulağı
##cev
trump’ın
salona
hatırlatıyor
envanter
desteklediği
konudur
insanının
kaplıca
saraybosna
kompakt
genelindeki
siktir
##mahalle
şort
##tihar
borsalar
okuna
ayaklar
öfkeli
##anya
arabuluc
##ign
ortalığı
evinizi
kabus
açtır
gücümüz
kongrede
göktürk
uyuşmazlık
tahkim
hisarcıklıoğlu
tmm
teleskop
cola
##oza
faik
wifi
büyükler
belgesinin
vurmak
beklentilerin
gerçeğin
didim
kaybetmesi
##ansın
taylor
taşlı
gözüm
aynısı
devletten
birimlerinin
cevizi
panor
haberim
##li̇r
ilm
valen
##mışsın
yürürlükten
etkilerinin
bitirme
bergama
kurtaran
özden
koşullara
kadından
bülbül
alf
balıkçılık
yangına
üretimde
##işt
rengin
malzemeden
“ken
francisco
kuruluşundan
##efi
bilgilerle
terzi
doğrulama
bem
micro
add
pancar
karışan
sevgiyi
aktarılan
verilerini
##başkanı
pilsen
stad
ortamına
vatandaşlarının
aşamaya
gördüklerini
geçmişteki
yaşananlar
tavsiyeler
işgücü
tığ
##malara
ölçüsü
##manızın
bozuldu
saçlarını
sakatlığı
kuruluşlarında
saklamak
uzmanların
çekilir
revize
değişebilir
tanımayan
aliağa
sahasına
içmeye
ayarlanabilir
ilmek
control
bağları
muhtarlar
seyirler
konj
kulüpleri
koymaya
görünüyordu
riy
şifren
afp
köpeğin
##vard
##lemi
nail
gülün
yaptırdığı
elizabeth
oranlarda
hoşgeldiniz
anlaşmalar
aksat
116
hiv
zorundasın
zeminde
yapılanması
##bileceğim
bağlanmış
mimarlar
faul
sergiler
##oca
başsavcısı
kadr
acemi
##yınca
##memeli
nakış
unutulmamalıdır
##ürler
mü’
tavsiyem
sitenize
i̇ftar
ölüyor
düzenleyerek
derd
sembolik
gecesinde
unuttum
##asy
çizgiler
arttırılması
oturmak
konuşmasına
i̇ran’ın
çiğdem
##lenmek
yapılabilmektedir
##an’ın
solar
bad
gedik
üyelerimiz
üniversiteleri
##para
köylerde
##masina
##ralı
yaylası
yaradı
galibiyeti
wid
ilçemizde
tepkisi
##lanmaması
öğrencilerden
değişikliğine
toplantısının
ilâ
soz
partide
gelirlerinin
ayağına
önyargı
polislerin
festivalde
1922
##°c
iletken
termik
nük
çapı
sağlarken
##skop
andıran
şeyim
belgel
bahş
sofya
ilik
safha
baktığımda
gördüğün
kaybettiğini
luces
##miþ
##ceğim
düzenlemelerin
meçh
kali
##xx
nesillere
##asus
başlığıyla
fizyolojik
kafam
yöntemdir
rumlar
hatlar
##caret
yüzyıla
volkswagen
fransa’da
florida
2018’de
özge
toplamaya
##ан
kalbine
ctp
##lamam
darı
kisa
enes
edindiği
“bugün
yaygınlaş
reklamı
modellerinde
kamuda
özenli
bilkent
şehirleri
side
kendimden
olsan
benimse
umr
seviyesinden
tsi̇
##leşiyor
betim
terörü
sürtün
have
şurada
ediyorsa
değersiz
gecen
tuvalete
##abat
yardımına
baklava
ihtiyat
çağda
sher
nebze
gitmesini
bölük
gözlerim
kayıplar
aur
makalede
yaşatan
peygamberin
##leştirilmesi
gönderi
anlatma
saldırısına
vücuttaki
glik
##ayak
stajyer
“siz
bırakalım
başının
söze
##meyelim
açtığını
##iste
ucundan
##ruh
rober
yapılmadan
toplanarak
##ecekleri
##arp
zemini
hacker
sayılabilecek
i̇ö
isteyebilir
##beyi
düzenlemenin
abartılı
##mp
imparatorluk
çiçekçi
##lığınız
tanrısı
geçilmesi
gari
hizmetlerden
vatandaşlarımıza
senarist
sınıfına
varlığın
attık
##”nin
örgütlü
bütçeye
tin
kanunları
antrenörü
inandığını
##meyerek
##darı
evliya
ilacın
gerçekleşmiş
zorlanıyor
atmayı
sayfadan
444
yemeğin
yerleşmiş
operatörü
hepsinden
##âne
kurtulan
sayfasını
kıpır
yaratılış
viraj
sallallahu
vr
tex
listenin
bittiğini
apo
##bahat
takımla
müftüsü
duyuruldu
açılmasına
gemileri
fernan
hayvanat
1959
mık
gelmeyecek
kullanmaktadır
politikalarının
üretiyor
uzaylı
görmekten
sahipti
gelirin
sinyali
yenisini
##itleri
otorite
zeb
gelişi
uygarlık
noksan
slot
##ganın
kitlesel
küçükken
veyahut
uğrar
##eng
ther
sayış
##uyum
mastür
sularında
davasının
soruşturmanın
marx
yaratmış
oyuncaklar
lucescu
teselli
ilerledikçe
yüzyıllar
meçhul
sessizlik
keçiören
##bbe
narin
hakların
dermat
seçiniz
ankara’nın
alsan
amerikalılar
sıkıntıya
önerilerini
kocasının
alerji
##asyonal
gelişir
indek
hikayeyi
denizaltı
anlatılıyor
won
amına
tepkisini
yollu
kadardır
hayvanı
zindan
yapacaklar
i̇çerisinde
geçmişin
##asıdır
cons
saksı
i̇nanç
feh
molo
karakteristik
kepez
geçebilir
toplumların
düşüncesiyle
bakanlığımız
geliştirdi
veremez
parlayan
yayin
çevrenin
öldürülmesi
karamsar
işiniz
merkezlerine
fayans
##mayacaksın
ulaşacak
oecd
kartviz
tahsin
oralarda
klibi
tl’den
“d
1954
çıkın
cüzdanı
i̇la
christop
ink
olaylarda
sekizinci
otizm
how
amino
puanlar
topladığı
harcaya
antide
kaldıran
pırlanta
yakalayan
sağlayın
hakkıyla
ikon
düşüren
hekimler
engeli
uygunsuz
tesla
hayatımızı
araştırmalarda
ifadeyle
araştırmak
yenilenmesi
albert
vagon
yag
##onk
demirören
geneli
sıfatıyla
oruc
projeksiyon
kocan
peder
söylemeliyim
1938
parkta
yerim
##cuları
##yön
kaybetme
bizlerle
“ha
sopa
zana
##lığınızı
üründür
döşem
bitimine
slovenya
##laştıran
isteğini
bid
almadı
diline
sakinleştir
babamı
##wan
antlaşma
dönüştürül
nişantaşı
yerken
konuştum
birliğini
açmıştır
##isiydi
yaşanması
ejderha
kitlesi
şizof
tans
konularla
ayşegül
glu
yayınlanmıştır
yüklemek
kurumlarda
okuduk
bahsettiğimiz
yemeğini
sunucusu
asr
ürünlerle
matema
ange
içerikler
gürültülü
demokrasiyi
tarihçi
girebilir
metreküp
##aye
kapısında
bölümlerde
çin’in
dondurucu
dakikaya
öldürüldüğü
reb
listeler
konferansta
müdürlüğümüz
##isiyim
aksesuarlar
şaman
##tiğimi
mozaik
çıkarılacak
saldırdı
formatında
listeleri
politikalarını
havza
provok
adobe
kutlamaları
##lendi̇r
düzenleyecek
eleştirisi
“er
nov
##nas
geli
birleştirerek
hormonu
faturası
tüneli
müdürlüğünce
türkmenistan
sevinci
eşyalarını
düşünülür
kanıtlar
“de
geliyorlar
kadarını
yöntemini
school
yarışları
gösterimi
sû
açıklanması
tiroid
çerkezköy
##ranın
yenişehir
bebeklerde
girmesiyle
##lanmadan
temasa
duyum
bulaşıcı
odur
poyraz
haftayı
kota
adedi
##landım
##tüğü
sın
ödüyor
deneyimleri
yapabilen
duyarlılık
yazacak
yokuş
habercisi
zevkle
medyumlar
“dev
ilkeler
yayımı
sım
ödeye
i̇dris
güneşe
hüzünlü
##ро
tavsiyesi
minimal
hazırım
aylığı
kökü
anımsatan
verirse
örtüş
yükümlülüğü
refleks
işbirliğine
enfeksiyonu
##i̇p
kuzeyindeki
kumsal
yazılmıştır
getirildiği
yaratıcılık
margar
çalışmamız
değerlendirerek
işçisi
##‘in
renklendir
ortaköy
noktasından
ida
##ladın
saygılar
##üğe
fermu
sitemizin
yaralandığı
itham
basan
oluşturulur
hakimiyet
etmişler
karna
terörün
kurtaracak
sporun
##87
cumhuriyetçi
##liğinizi
özellikleriyle
birka
##lanmaları
açması
bafra
kru
b2
şirkette
pehlivan
rejimin
bozucu
karısını
üzülüyor
##çayı
##hie
tıbb
söylüyordu
kutluyor
##üzzaman
##col
gerekecektir
şikayetleri
kapitalizmin
söylemez
ölçüleri
dibinde
amacının
setleri
müdahalesi
kilidi
sağdan
empati
seslerini
senenin
##97
kesiminde
gemiye
ig
indirdi
incir
düzenleyici
##gır
tüketiciye
gitmesine
birş
güzelim
##彩票
sorunla
irdel
bağdaş
çapa
getirilerek
mi̇
##emediğim
bulunmuştu
isteyip
ihsan
bendinde
konuşarak
çocuğuna
##run
basınçlı
duyurusu
muhsin
binalarda
fotoğrafçılık
##pin
zararlar
o’na
##istim
oluşturuldu
vanilya
örneklerini
rakibine
images
bakir
##cast
çalışmasında
sancaktepe
##türkiye
tedbirlerin
barbie
tedavileri
hisseleri
kalıntıları
##tima
acıyı
edit
görmekteyiz
##mağı
beklemeden
ısmar
efendisi
mesafesinde
hazırlıklarına
türkan
uygulanmasını
uluslarar
değiştirilmiş
##’inin
katili
güzeldir
koşulların
##sing
süsleme
##cağınıza
soner
ulaşmasını
divanı
coğrafyada
tedarikçi
birbirlerinden
ciltte
güvenliğinin
lambası
antidepres
ödemeli
##62
bileşenleri
çocuklardan
azalarak
##online
gördüğümde
ışıkları
olamayacağını
##yenin
i̇ti
suretle
kolluk
başvurarak
uğraya
parasız
krizden
seyyid
beyanı
alzheimer
istikrarı
sahiptirler
tüketilen
“ön
mühimmat
istişare
270
dosyalarını
yandex
resmin
##lanmadığı
##esans
1962
fair
meal
derinliği
abdülhamid
satıyor
derginin
ã¶
kelam
lirayı
bulundurul
kolombiya
plazma
erkekle
vegas
çatışmada
arasinda
standartlar
ataköy
tebess
hyunda
##miyorsun
scripti
kurulda
anlı
lum
alayım
bulunduğuna
dışkı
grey
ihtiva
##ovic
sevginin
##ğuna
##boz
mercimek
dalları
kepenk
öldükten
i̇stanbul’dan
unutmayalım
##ýsý
esaslara
işlerden
andrew
114
alacaklı
xia
##very
arıyoruz
yurtta
amirliği
azim
kük
kökten
hücrelerinin
harcamalar
bulamayan
girdiler
kahire
mason
kompleksi
##ıhtı
well
sirke
##mân
boyutunu
cezayı
harekât
i̇nternette
miller
tanesidir
pide
##ree
edebileceği
okuluna
##dus
##li̇ş
vakıfbank
dead
korn
ezilen
tartışılan
maddelerinin
ales
dağlık
i̇znik
sürmektedir
indirin
sanır
##mişim
##‘ın
tekli
##alo
öğrenilen
derslik
##manızda
alandan
raporunun
tutarının
konfederasyonu
suriye’nin
##ilmen
eylül’de
bala
ünsal
farkındayım
stili
alırız
jav
şehirlerarası
albümde
mahz
eft
köprünün
gecek
dünyasından
sözleşmeyi
idman
azab
ödüle
çoğunda
##layayım
sonları
sarısı
edeme
saklıdır
tarihî
kardeşleri
almanlar
tyt
ikinc
mezarı
düzenler
dgm
karþý
rakamlara
efendimizin
boğuş
kılınan
eurov
zemine
yargıya
kt
insanda
battal
esed
ayrıntılar
vücudunda
kram
hazırlanacak
1955
renklerde
getirirken
boşaltı
“gel
vazife
kastet
sektörler
point
rif
##nden
başarıları
tabanc
milit
bitirdikten
tasarının
almamız
kilisenin
büyümüş
bitmek
oynamayı
kaldığımız
amacım
zamanlarında
karargah
müge
avrupa’ya
alaca
sandım
haftalar
kurslar
sinde
ormanı
body
geometrik
milyonluk
artıracak
bakışı
zorundasınız
etmedim
memleketin
sağda
kahvesi
havaalanına
saht
temsilciliği
olamayan
sözleşmede
i̇ddia
kurulmasını
sound
johnny
tanınması
biçimleri
##ımına
binasına
okuyabilirsiniz
##laşmayı
voltaj
koymuştur
rakamın
kumlu
rekabetin
kasten
söylediklerini
buradayız
seat
çerçevesi
bayıldım
canlıların
##ection
ağabeyi
sitelerde
“bil
ağlama
kaynaklanmaktadır
sistemden
gözyaşları
ulan
paralı
amiri
##vanta
vizyonu
rasyonel
##bına
buldular
düşüp
kansere
övg
merkezlerinin
teçhizat
jos
i̇zmir’in
yatar
sistemlerine
alanından
yaşayıp
conta
##lıp
hulus
dilinin
##yasından
hilton
türlerinin
genelg
yerleştirin
##lettin
konağı
hesaplarına
kuantum
aşısı
level
başkalarını
yemeğ
michel
vallahi
evlerini
projelendir
çıkarlarını
şili
sunma
çizerek
sormuş
kıbrıs’ta
sahneleri
noktasını
buldun
##ılsın
partiden
nemlendirici
mekte
kalacağı
rut
savaşmak
kaldılar
almalı
borusu
barınma
bıçağı
feci
disney
çıkartı
‘s
düğmesine
##tral
manager
dream
santa
cihad
“as
hıristiy
ayarlama
akademisyenler
terleme
##uhan
tilki
gezip
##linde
titreşim
sokakları
resimlerini
alınabilecek
geçildi
türkçesi
##laştığını
hidr
istatistikleri
senkron
farkli
danny
birilerini
kapatan
davaları
adren
destekleyici
çalmak
yakınlarının
ağırlığında
birdenbire
oyların
fram
etmiyoruz
##mistir
koşarak
türklere
görüşmelere
xml
mezheb
okuyacak
kulluk
##masınlar
müddetçe
misal
milyarlarca
patlak
kıvan
ferman
sanıklar
hepsinde
##übey
##ındak
birbirleri
kompres
düğünü
duruyordu
şifalı
##cacık
davranışlarını
##´de
##riyat
salatası
belgelerini
aci
inisiyatif
##ilmeleri
kıymetler
yüklenen
okuyu
belirti
çabucak
güvenen
torp
yapamıyor
##ecilerin
sıçra
mastürbasyon
sınavlar
miydin
yapacağımı
chu
satmaya
yüzyıldan
##hor
anast
bayanlara
yatırımın
kemeri
þek
dakikasında
ediyorum”
hamburg
odayı
aldatma
prototip
allen
toplanmış
arazide
gelindiğinde
araplar
etmeliyim
bozulur
kutlamak
olamadı
fotoğrafta
kondom
şeyde
arnavutköy
üzerime
teknikler
papatya
geçmişti
öğrenin
kaçıp
gülüyor
zihni
eninde
ký
##osit
firavun
barut
priz
##lanacağı
##amaması
önümüze
modellerinin
emn
i̇şsizlik
gerektiriyor
kıvıl
cevher
operasyonlarda
artırmaya
porto
yürüdü
1924
olmadık
uygulamalarda
yangının
daya
ekranında
dakikadan
yazarların
özelliklerin
proses
aba
şantaj
yargının
vermediği
öneriyoruz
hassasiyeti
kava
musluk
##latıp
liginde
koltuğunda
bakarsak
kurnaz
görülme
daily
jüp
bilgileriniz
muhafazakâr
davranan
ilişkide
ankar
yapımcısı
##emit
kabiliyeti
sempatik
tamamlandıktan
artarken
bilmiyorsun
ilerlet
bıçakla
çarpışma
kıyafeti
gitmişti
içerisindedir
dolunay
seçimlerinin
müdahalede
gösterirken
##dıyal
atay
pegasus
##panak
ekleyebilirsiniz
günümüzdeki
filmlerini
öğrenince
şeklindedir
tarifler
motorun
bluz
halkbank
1948
“20
meltem
amaçlıyor
yeteneğini
istemiyorsanız
prodüksiyon
##doğru
bölgelerin
misyonu
tesekkur
kelimeyi
şahısların
atışı
davetli
yarışında
##ihat
sanatçıları
karl
boran
kırmak
spekülasyon
kordon
turnuvada
yeşim
i̇lanları
hayalleri
##bran
nikâh
##ştaki
ihracatçı
##abeti
çıkarlar
atalım
konfeksiyon
##84
değindi
gerçekleştirerek
a101
buluşturan
teşhir
dayanmaktadır
saldırılara
erteleme
yarışmacı
modeline
hent
i̇ncir
vuruyor
safra
1957
anks
3g
sörf
inceledi
##eceli
ürünlerinden
kalmayıp
iletti
itfa
##ilmeyi
##iren
liseleri
resi
##max
yaklaşımlar
anlaşmaları
dansı
göründüğü
büyümeyi
bulunduk
suçlarından
batıda
yakınlık
##perver
##burger
ziyaretçilerin
önemle
yenimahalle
analog
düşüncenin
erişilebilir
yetkililere
aklında
##olitik
yerleşti
yaşayabilirsiniz
##nar
jason
sığdır
studio
##eva
beyefendi
duası
oğlumun
tekk
getiriliyor
gelenleri
1958
haberlerde
afad
halat
dönemleri
i̇stanbul’daki
##dian
katacak
shan
yenisi
annemi
engellem
giymek
##cho
sancı
terimi
menteş
##alma
sayıdaki
komisyonun
##osta
karde
sayfamızdan
öğretimi
tırmanış
##ları”
##liyat
mgk
bozkır
##rif
sohbeti
halled
psikolojisi
güçlendirilmesi
üzüldüm
“gen
ayrica
kartuş
i̇şadamları
döndüğünde
kiev
değerin
onk
müteş
batar
uygulanıyor
çıkarıldığı
barbaros
duydun
merkezden
sahnesinde
sözleşmeye
mikrobiy
tüketilmesi
anarş
izlediğim
vurur
sultanbeyli
##omuz
pusula
sensörü
##ilebilmektedir
öğrenimini
ýn
insanlarının
bırakmaya
olmamıştı
yanlıştır
piyasaları
##ulabilir
eğlendir
medyadan
konsepti
döküman
alexander
##erim
morgan
kapsamaktadır
avea
hazırlıyor
altmış
komando
ine
vatandaşlarla
sıralı
boşnak
biricik
besleyici
hapiste
sevdiğin
saptır
##master
baktığımız
etkilediğini
mezarlık
imzasını
seyyar
ılımlı
tesadüfen
yarıyor
franch
azalan
gemlik
götürüp
volvo
doldurmak
kralın
next
oluşturduğunu
yüzeysel
gördükten
pentagon
deneyimlerini
##iklik
##baç
normale
paylaşmaya
##kek
##via
##lide
mesafeli
rio
çıktılar
keserek
olaylarının
dakikalarda
tuğba
330
##tayı
kaynağıdır
##meyiz
##itin
hızda
ahbap
düzenleniyor
kimlerin
payının
like
lokomotif
sure
##dici
menajeri
kapasitesini
çıkartmak
tesislerin
küst
laboratuvarı
emred
fuhuş
kategorisine
boyalı
dinçer
gözlerine
##mamıştım
calı
doğrama
görünmek
korkutucu
bakımını
paylaşarak
alırsınız
direktif
tüpraş
##i̇f
temsilen
kaldırıldığı
225
##fel
çalışıyordum
tuttuk
etmekteyiz
göndermiş
devriye
bırakılmış
##unup
durumlarını
bükreş
##laştırıcı
botan
##leştiren
doğayı
“r
konuşup
kızımın
savcılar
olsanız
gruplarına
barındırıyor
duk
aletler
pun
yüzeye
elleriyle
işliyor
otururken
gercekten
yakalanması
seçmiş
altin
şartlarının
old
oranlar
##iii
##age
bele
aklından
##eydim
düğmeye
finansmanı
i̇ndirim
pişmiş
##wards
müziğe
acentesi
andy
##öm
golünü
kartını
bakabilirsiniz
otellerin
seyreder
karışma
##iralama
##kırımı
alkan
mangal
telaffuz
seksen
zı
akılcı
##lî
değerlendirmesinde
##eling
boza
daveti
yerleştirilmiş
zorlukları
##ğındaki
kabr
kefalet
hikayenin
denilince
sıkma
stefan
alanlardan
i̇slamiyet
gömülü
yaralar
istemiştim
lew
dl
yönelim
üstte
bell
aleyhinde
##elenmiş
işyerlerinde
i̇ade
i̇fade
yapilan
artırdı
card
tabut
##ğun
inşası
##lanmalıdır
talebe
gerekenleri
##ortis
tâbi
lisede
ortalıkta
karşılaşan
sevmem
geçmiyor
1080p
press
görevin
zikred
aracına
implant
kapanan
başkanlığındaki
mesajlaşma
bıraktıysa
vana
dengeyi
olmadıklarını
##tiyar
ilkelerine
karatay
##’leri
kilosu
sektörlerde
iradesi
##gia
juvent
bayım
bilirler
gideceği
inanı
gelib
tommy
şaşırdım
aygün
silmek
##uspor
marj
bahsediyoruz
##cana
tatilde
das
hizmetimiz
camiye
uzantısı
compan
müdürlükleri
manis
eczacıbaşı
##lamadığı
gösteriler
narkotik
##dığa
##digini
kayıtlarına
sorabilir
kalınlığı
kalkanı
##guay
touch
##iskop
tepsi
kesimleri
kalkıyor
duyduğunuz
kaşar
##eliyim
arşivlendi
yapamam
soci
arabayla
çikolatalı
doğranmış
karad
kursa
güt
sağlanabilir
mimarı
konuştur
girmez
istiyorsak
çağatay
detayı
kaydedil
bakıyoruz
doyası
ihbarı
##ista
varım
köşkü
hulusi
hastanelerde
yetişkinler
yürürlükte
düşürdü
sterlin
##ininin
147
tmmob
doldu
jant
kombinasyon
boktan
dokunma
kariz
ailelerinin
mobilyaları
başlatı
kapağını
auta
odasının
fera
taşımacı
seansta
başlatmak
gösterecektir
güvenin
mahsul
şekerli
akalın
orantı
güçlerine
selin
hatayı
yararlanan
aer
moloz
##mediniz
zombi
tekni̇k
profesörü
com’da
kalkmış
ayaklanma
soykırımı
korunmasına
##emediğimiz
toplantılarda
duyduklarını
tedavisine
polyester
ihtis
bitkinin
mamak
şarkılarını
körük
alttaki
azıcık
politikacı
yerlerinin
baskılar
mudan
vinc
comment
canına
görüntülendi
tanıtan
öldürüyor
doktorunuz
ördek
yardımları
latince
stüdy
elektroman
icraat
bahadır
kesinleş
sıcacık
sepeti
##bridge
##diveni
buluşmak
hakemi
isabetli
##fur
ramp
##i̇ni̇
gerilimi
çevirisi
lokma
düşmanın
olmasi
oluşturulmuştur
##izasyonu
alacaksınız
##meci
taraftaki
oğluna
gecekon
alamıyor
##lecek
##ush
iller
istediğinizde
kanadı
savaşının
yayıncı
kaldığım
##işer
başarmıştır
malul
hukuksal
değişikliklere
bediüzzaman
##vesi
emekçi
babaları
görüşen
boyuna
mesajında
konforu
##çuluk
huzurevi
mahkemesinin
juventus
“son
doyasıya
yapabilme
kapama
çalmaya
##ет
belgesini
gevşek
ilçelerde
esma
insandan
bölgesini
##ya’nın
mekana
girilen
“ey
olmamalıdır
dökülmesi
##uer
301
etkinliğini
##ti̇r
gamze
260
##cket
mehmetçik
sual
tayvan
veremem
özelliğe
ödeyen
yansıtıyor
düzeyini
vardir
cadd
i̇slam’ın
çıksın
müslümanları
vahşet
öğeleri
gönderin
tanımlayan
elimizdeki
ass
##maktadir
kırgın
ifşa
cru
çakıcı
şikayetler
faktörleri
uygulamadan
ortalık
‘‘
kaplumbağa
kamaştır
kv
onaylanan
state
görmüştüm
şifresi
olayına
eurovision
i̇deal
gence
bünyesine
özgürlüğünü
gelibolu
plu
fesih
grubunu
türküleri
oluşturup
##dragon
acılı
kimselerin
beat
görevinin
babama
sahtekar
##tırken
internetin
sirkü
otoriter
öpücük
sıklığı
##laştırılması
##düğümüz
sürücünün
bitim
space
gerilla
arayüzü
##kum
sahur
seviyeli
jüpiter
andaki
aşağıdan
hâline
umutlu
dönüştürmek
asansörlü
hyundai
saçların
simge
uyurken
##ilebileceği
kh
gif
##ılmayacak
esneklik
olsunlar
başkanlarının
deneyimler
kalitesine
karıştırma
yapmışlar
##lanırsa
eşimin
koyduk
flört
##ebiliyorsunuz
cezanın
hez
boykot
almamış
safh
##2311
i̇stanbulspor
sivilc
sözüm
##َا
joy
ifadesinde
fabrikasında
ikaz
##hall
gözenek
alınmaz
sorunum
ordan
eklenti
sarsıntı
ubp
doğmuştur
açıköğretim
по
etmemesi
gelişmesini
sitemizdeki
evliliği
kızılder
ellerindeki
sergiledi
çile
seçilecek
sanatsever
gerçekleştiriyor
mektupta
değilseniz
özellikli
kocael
yaşasın
patrik
milletimize
##cuma
sensiz
geldiğimizde
tanıtma
##ilerimiz
yaşanılan
ateşin
meriç
dekanı
##layacağınız
nasib
##gis
hastalarının
hazırlıklar
##zz
seçimden
belirtilmektedir
remzi
imiş
kuşağı
##gine
##’sini
alıkoy
getirdikleri
rabbi
##elektrik
vesilesiyle
##ılmaksızın
icinde
rahatlat
yurd
yufka
nano
taburcu
gezerken
retro
omz
##adın
sonucun
nöro
barkod
modunda
##şır
kararlılıkla
##tesiniz
delir
##light
değişecek
dokuna
konuklar
çalık
önden
atlantik
kasabada
durumların
##mıyordu
açtık
kazandırır
angela
yüks
başlamasıyla
itici
dörtte
harbiye
bereketli
##mıyorsun
##olla
toksik
’in
unutmak
parçayı
muyum
şat
bakayım
saltanat
eklenmesi
topluyor
dişleri
via
süresinde
düşünüldüğünde
barın
seçimlerden
yapabileceğini
mecidiy
adaylara
salonuna
hapishane
billy
gerisi
günlüğü
hedeflerinin
duyguların
antiv
ödülüne
çamlı
yardımlar
karşılaşmasında
##vler
pıhtı
##vana
aylardır
##lığımı
tarifini
view
##arta
eserinde
##deti
bilemem
##adar
olayım
makedon
sanıkların
çektiğini
suit
tanınır
hentbol
113
davalar
aranıyorsanız
tanımlamak
seviyelere
varolan
kurumlarından
duruşmaya
aklımıza
##si̇z
rövanş
düdük
suça
dolandırdığına
##ülk
çıkışında
##6627
saldıran
olmadıkları
kararlarına
baktığınızda
basınında
ortalarında
our
tse
vergileri
teknolojisini
“kar
çalma
dolaşıp
##eceğinize
köyler
##ovo
açıklamasının
majest
mıknat
ürper
hisseden
faaliyetlerinde
0506627
05066272311
mona
##eviç
##tenin
manto
sergen
yaparsın
aga
##demok
işlemek
sınavın
satıldı
migren
phone
turunda
duz
değişmiş
köksal
fabrikaları
##layacağını
turku
özendir
emzirme
düm
çocuklu
olduklarından
giymiş
heyecanını
kalacağını
abdülkadir
ahır
brian
barınak
benze
patladı
reddeden
explor
eskim
ayasof
girişimler
diğerinin
tevhid
yapılmadı
sanayinin
erdemli
kökeni
##veli
kızlarla
kütük
spo
hazırladığınız
##muştuk
ekli
##rix
##iliğinde
ümid
görmesini
salgılan
##tiğinden
ünye
yazılımlar
yumuşa
hiçe
acılar
izole
örgüte
kaynaklan
milletvekilliği
reçel
ekol
4000
##ets
gözünün
bırakıyorum
formasını
##miyim
gezerek
kazandığını
maaşları
umuyor
koğ
moldo
karıştırıp
ekim’de
##stantin
##tiva
123
taraftarların
karşılaştırıldığında
kromozom
röntgen
izlenme
rh
sitelerini
##luğundaki
##mah
##ezid
yakınındaki
##63
ekranlara
ihtiyaçlarının
##ны
gibiyim
vâ
yaşlanma
tesbih
ikincil
##cing
yapabilirsin
edersek
aşağılık
deyin
gereksinimi
okş
konuşalım
varmak
geleceğim
giş
ağları
vereceğiniz
##ersey
rasul
adın
2500
kasabası
bozulma
aramada
tuncer
i̇zlanda
değiştirebilir
sahilde
karaya
deresi
kasım’da
zence
mürettebat
repo
einstein
bulundurarak
312
##retim
harvard
1921
##þtur
nedenlerinden
rabbimiz
“çok
erdoğan’a
taşımaya
yds
kazançlar
kalitesiz
sırasına
olaylarla
faydalanabilirsiniz
ferit
mesafesi
sendikal
##irseniz
drone
çalınan
vatansever
parmağı
haklısın
uygulamalarına
verilirken
saygısızlık
temizle
kalmaktadır
1946
ölçekte
bekletin
yapacaksınız
yank
türker
ayrılı
thor
sf
##memelidir
etkinliklerle
somali
##ibi
yks
alınmasının
yulaf
boyuta
optimum
##lix
##ılsa
##aks
kabir
çıkartıyor
tavş
##ıtı
##melerinde
hayallerini
yağları
projemiz
alternatifi
i̇sa’nın
zina
ribaunt
sporcuların
saçmalık
irak’ta
bakanımız
yapabileceğim
##lebi
kaldırır
işlemlerine
##yam
kararlarının
duymadan
farkları
reformlar
isi
yarışta
god
aylarca
yaşlılık
deklar
getireceği
##uble
olcay
tarafýndan
##dettin
ilgileniyor
gözlüğü
üss
mevkii
##ihi
kıvanç
kolaylaştıran
çekilme
alabiliyor
fabrikada
düşürür
çalgı
meclisin
kimseyle
“mu
hızır
##form
yönetecek
terörizm
jest
açıkta
bilmediğim
payla
görseller
istenir
verileceği
çiftlerin
sistemidir
##umet
açıklayıcı
güncellemesi
mahkemeleri
denizbank
taslağı
ozon
ağaoğlu
eksil
projelerinde
ekiplerine
becerik
talimatları
syn
manda
çoğunluğunun
ihtar
##foni
bırakmayan
akkaya
iner
antivir
yasaların
duydu
bülteni
zeytinyağ
sayıştay
sayıya
boyutlara
algısı
kaldırarak
problemin
geçmeyen
olanaksız
şişme
kaygısı
boris
arsenal
listel
patri
##ль
mikroorgan
işinize
sözleşmesini
avantajlar
expo
buzul
osmanlıca
iyileştirilmesi
bakmadan
ji
gaza
harem
istila
söylediğin
water
derneği’nin
ilıca
clark
bozulmuş
afiyet
bahçeleri
davacının
wilson
##ugeot
bakara
teala
##ediklerini
beşer
i̇şleme
amortis
merci
noktalarından
sendikalar
yayılması
giydi
solcu
gösterici
şifreli
bim
artmıştır
formunda
##itme
tarafları
vu
##ılmadı
parçaya
büyümesini
üniversiteli
sehpa
##ody
cüret
türünden
lerden
zamanının
sergide
milis
aktarılması
hattına
aşmak
çocuklarımızı
dürüstlük
denince
kravat
seyrede
oyak
habertürk
paş
##uluslararası
christian
korkan
cümlesi
yandı
bulmuştur
##mıyorlar
dekore
##lе
177
nesiller
demiyorum
düşmanlık
rick
arkadaşlarımızın
mü’min
secur
doğuda
miny
hayaller
sz
119
görüşüne
##biç
karakterin
kıymetini
oksit
##atepe
##laştıkça
görmüştür
oluşabilir
istemedi
slm
dışardan
çevresini
gerileme
optimize
##kılap
amma
geldiklerinde
dro
sözel
biyograf
elçisi
vakum
defil
görüntülerini
neleri
toplanacak
kapısının
olmayınca
cannes
##i̇nci̇
yaprağı
dışarda
kurg
##reni
8217
menopoz
##mazdım
güzelliğini
mayo
sahneler
sima
böyledir
kitlelere
family
##dern
atlar
vermekle
isimlerle
sorulması
fiyatlarındaki
başarısızlık
amaçlarla
seviyoruz
deterjan
koza
maçından
hedeflenen
önemsem
iyiliği
kıyma
mahallem
cazibe
i̇htis
istersiniz
sevmez
leziz
paketler
anca
alsın
teksas
ellerinize
şehrinin
##ğinden
süratle
yolcuların
tuşları
##asyona
##ural
1956
annemle
kenet
tüketmek
düşünüyorlar
niyetinde
##tana
bahçesine
üretilmesi
projelerine
tekil
kolaylaştıracak
engellenmesi
arkadaşıyla
etkiyi
viv
nasılsa
##otekn
akışkan
bugun
şampiyona
##layanlar
şehirlerin
nedenden
mülkiyeti
tech
karakterlerin
##craft
##lace
south
yarımadası
##ий
düşeni
i̇ki̇
ayındaki
suçtan
semer
alice
folklor
pass
allâh
şehitleri
aktiviteleri
tutmayı
amc
balıkları
açılıp
ölçe
prova
vard
i̇lham
atıkların
bulamıyor
kck
akpınar
erkeklerden
##babı
çimen
bağr
isimlerinin
moon
sağlanacaktır
ritim
##ebilecekleri
##ğunda
zorundadırlar
fem
kusurlu
faizleri
katılıp
gelmekte
hizmetinin
1944
davranmak
1ch
avı
##ank
ilimizin
hitaben
peugeot
başladığımız
kağıthane
hepimize
##rara
anavatan
cocu
dahildir
nitel
##ilmediği
süreçlerini
##esta
doldurul
kazanabilirsiniz
olduysa
mach
##senger
rönesans
düzeltilmesi
mazhar
doug
olmuşlardır
hanımın
kabızlık
başörtüsü
dolarla
oluşmuştur
yatirim
surette
doldurup
yataklı
##ils
##face
komutu
geçiyoruz
okyanusu
##lov
sağlayacağı
kolaylaştırır
baka
feneri
tesiste
beklemektedir
hrant
i̇srailli
##retmen
büyükann
fax
i̇man
saatini
##ull
değere
kurtuldu
vatikan
##ã¼n
elektromanyetik
severlerin
##tics
caydır
okunur
yapınca
uzmanlaşmış
düşmesine
yakan
derecelendirme
pelin
fazlaca
merkür
mahalleye
[...]
